{
  "version": "1.0",
  "truncation": null,
  "padding": null,
  "added_tokens": [
    {
      "id": 0,
      "content": "<|pad|>",
      "single_word": false,
      "lstrip": false,
      "rstrip": false,
      "normalized": false,
      "special": true
    },
    {
      "id": 1,
      "content": "<|bos|>",
      "single_word": false,
      "lstrip": false,
      "rstrip": false,
      "normalized": false,
      "special": true
    },
    {
      "id": 2,
      "content": "<|eos|>",
      "single_word": false,
      "lstrip": false,
      "rstrip": false,
      "normalized": false,
      "special": true
    },
    {
      "id": 3,
      "content": "<|unk|>",
      "single_word": false,
      "lstrip": false,
      "rstrip": false,
      "normalized": false,
      "special": true
    },
    {
      "id": 4,
      "content": "<|user|>",
      "single_word": false,
      "lstrip": false,
      "rstrip": false,
      "normalized": false,
      "special": true
    },
    {
      "id": 5,
      "content": "<|bot|>",
      "single_word": false,
      "lstrip": false,
      "rstrip": false,
      "normalized": false,
      "special": true
    }
  ],
  "normalizer": {
    "type": "NFKC"
  },
  "pre_tokenizer": {
    "type": "ByteLevel",
    "add_prefix_space": false,
    "trim_offsets": true,
    "use_regex": true
  },
  "post_processor": null,
  "decoder": {
    "type": "ByteLevel",
    "add_prefix_space": true,
    "trim_offsets": true,
    "use_regex": true
  },
  "model": {
    "type": "BPE",
    "dropout": null,
    "unk_token": null,
    "continuing_subword_prefix": null,
    "end_of_word_suffix": null,
    "fuse_unk": false,
    "byte_fallback": false,
    "ignore_merges": false,
    "vocab": {
      "<|pad|>": 0,
      "<|bos|>": 1,
      "<|eos|>": 2,
      "<|unk|>": 3,
      "<|user|>": 4,
      "<|bot|>": 5,
      "!": 6,
      "\"": 7,
      "#": 8,
      "$": 9,
      "%": 10,
      "&": 11,
      "'": 12,
      "(": 13,
      ")": 14,
      "*": 15,
      "+": 16,
      ",": 17,
      "-": 18,
      ".": 19,
      "/": 20,
      "0": 21,
      "1": 22,
      "2": 23,
      "3": 24,
      "4": 25,
      "5": 26,
      "6": 27,
      "7": 28,
      "8": 29,
      "9": 30,
      ":": 31,
      ";": 32,
      "<": 33,
      "=": 34,
      ">": 35,
      "?": 36,
      "@": 37,
      "A": 38,
      "B": 39,
      "C": 40,
      "D": 41,
      "E": 42,
      "F": 43,
      "G": 44,
      "H": 45,
      "I": 46,
      "J": 47,
      "K": 48,
      "L": 49,
      "M": 50,
      "N": 51,
      "O": 52,
      "P": 53,
      "Q": 54,
      "R": 55,
      "S": 56,
      "T": 57,
      "U": 58,
      "V": 59,
      "W": 60,
      "X": 61,
      "Y": 62,
      "Z": 63,
      "[": 64,
      "\\": 65,
      "]": 66,
      "^": 67,
      "_": 68,
      "`": 69,
      "a": 70,
      "b": 71,
      "c": 72,
      "d": 73,
      "e": 74,
      "f": 75,
      "g": 76,
      "h": 77,
      "i": 78,
      "j": 79,
      "k": 80,
      "l": 81,
      "m": 82,
      "n": 83,
      "o": 84,
      "p": 85,
      "q": 86,
      "r": 87,
      "s": 88,
      "t": 89,
      "u": 90,
      "v": 91,
      "w": 92,
      "x": 93,
      "y": 94,
      "z": 95,
      "{": 96,
      "|": 97,
      "}": 98,
      "~": 99,
      "¡": 100,
      "¢": 101,
      "£": 102,
      "¤": 103,
      "¥": 104,
      "¦": 105,
      "§": 106,
      "¨": 107,
      "©": 108,
      "ª": 109,
      "«": 110,
      "¬": 111,
      "®": 112,
      "¯": 113,
      "°": 114,
      "±": 115,
      "²": 116,
      "³": 117,
      "´": 118,
      "µ": 119,
      "¶": 120,
      "·": 121,
      "¸": 122,
      "¹": 123,
      "º": 124,
      "»": 125,
      "¼": 126,
      "½": 127,
      "¾": 128,
      "¿": 129,
      "Â": 130,
      "Ã": 131,
      "Ä": 132,
      "Å": 133,
      "Æ": 134,
      "È": 135,
      "É": 136,
      "Ê": 137,
      "Ë": 138,
      "Ì": 139,
      "Î": 140,
      "Ï": 141,
      "Ñ": 142,
      "Ö": 143,
      "×": 144,
      "Ø": 145,
      "Ù": 146,
      "á": 147,
      "â": 148,
      "ã": 149,
      "ä": 150,
      "å": 151,
      "æ": 152,
      "ç": 153,
      "è": 154,
      "é": 155,
      "ï": 156,
      "ā": 157,
      "Ă": 158,
      "ă": 159,
      "Ć": 160,
      "Ĉ": 161,
      "ĉ": 162,
      "Ċ": 163,
      "ċ": 164,
      "Č": 165,
      "ď": 166,
      "đ": 167,
      "Ē": 168,
      "Ĕ": 169,
      "ĕ": 170,
      "ě": 171,
      "Ĝ": 172,
      "ĝ": 173,
      "Ğ": 174,
      "ğ": 175,
      "Ġ": 176,
      "Ģ": 177,
      "ģ": 178,
      "Ĥ": 179,
      "ĥ": 180,
      "Ħ": 181,
      "ħ": 182,
      "Ĩ": 183,
      "ĩ": 184,
      "Ī": 185,
      "ī": 186,
      "Ĭ": 187,
      "ĭ": 188,
      "Į": 189,
      "į": 190,
      "İ": 191,
      "ı": 192,
      "Ĳ": 193,
      "ĳ": 194,
      "Ĵ": 195,
      "ĵ": 196,
      "Ķ": 197,
      "ķ": 198,
      "ĸ": 199,
      "Ĺ": 200,
      "ĺ": 201,
      "Ļ": 202,
      "ļ": 203,
      "Ľ": 204,
      "ľ": 205,
      "Ŀ": 206,
      "ŀ": 207,
      "Ł": 208,
      "ł": 209,
      "Ń": 210,
      "Ġt": 211,
      "he": 212,
      "Ġa": 213,
      "in": 214,
      "Ġthe": 215,
      "Ġo": 216,
      "re": 217,
      "Ġs": 218,
      "Ġw": 219,
      "nd": 220,
      "er": 221,
      "ĠĠ": 222,
      "ha": 223,
      "ou": 224,
      "on": 225,
      "it": 226,
      "is": 227,
      "Ġb": 228,
      "ed": 229,
      "en": 230,
      "Ġm": 231,
      "Ġof": 232,
      "Ġc": 233,
      "Ġf": 234,
      "or": 235,
      "es": 236,
      "ing": 237,
      "Ġand": 238,
      "Ġto": 239,
      "Ġp": 240,
      "ar": 241,
      "Ġd": 242,
      "an": 243,
      "ll": 244,
      "at": 245,
      "Ġin": 246,
      "as": 247,
      "âĢ": 248,
      "Ġl": 249,
      "Ġh": 250,
      "om": 251,
      "Ġn": 252,
      "Ġhe": 253,
      "ic": 254,
      "le": 255,
      "Ġha": 256,
      "et": 257,
      "ĠI": 258,
      "ot": 259,
      "hat": 260,
      "Ġg": 261,
      "ut": 262,
      "st": 263,
      "</": 264,
      "al": 265,
      "ow": 266,
      "Ġe": 267,
      "ion": 268,
      "ve": 269,
      "Ġbe": 270,
      "se": 271,
      "ent": 272,
      "im": 273,
      "ld": 274,
      "id": 275,
      "ĠĠĠĠ": 276,
      "ly": 277,
      "ce": 278,
      "Ġth": 279,
      "gh": 280,
      "Ġy": 281,
      "Ġre": 282,
      "ith": 283,
      "Ġthat": 284,
      "Ġu": 285,
      "ro": 286,
      "ir": 287,
      "Ġwas": 288,
      "Ġ<": 289,
      "ay": 290,
      "ver": 291,
      "Ġon": 292,
      "ur": 293,
      "ĠT": 294,
      "Ġit": 295,
      "Ġwh": 296,
      "ct": 297,
      "Ġfor": 298,
      "ad": 299,
      "Ġwith": 300,
      "Ġyou": 301,
      "Ġas": 302,
      "ri": 303,
      "Ġhis": 304,
      "ĠA": 305,
      "ra": 306,
      "ght": 307,
      "Ġst": 308,
      "ch": 309,
      "her": 310,
      "am": 311,
      "ĠS": 312,
      "Ġwe": 313,
      "Ġan": 314,
      "âĢĻ": 315,
      "Ġis": 316,
      "ter": 317,
      "oo": 318,
      "Ġor": 319,
      "il": 320,
      "Ġnot": 321,
      "and": 322,
      "âĢľ": 323,
      "qu": 324,
      "ge": 325,
      "ĠM": 326,
      "Ġat": 327,
      "âĢĿ": 328,
      "ill": 329,
      "if": 330,
      "ain": 331,
      "Ġhad": 332,
      "ke": 333,
      "us": 334,
      "th": 335,
      "Ġher": 336,
      "ess": 337,
      "ould": 338,
      "Ġse": 339,
      "Ġme": 340,
      "ef": 341,
      "pe": 342,
      "red": 343,
      "ĠH": 344,
      "--": 345,
      "all": 346,
      "ck": 347,
      "tt": 348,
      "ul": 349,
      "ich": 350,
      "Ġde": 351,
      "Ġby": 352,
      "ĠC": 353,
      "ĠThe": 354,
      "ol": 355,
      "rom": 356,
      "ation": 357,
      "ore": 358,
      "Ġhim": 359,
      "Ġsu": 360,
      "ĠB": 361,
      "Ġsa": 362,
      ".</": 363,
      "Ġv": 364,
      "Ġmy": 365,
      "the": 366,
      "Ġso": 367,
      "Ġ(": 368,
      "est": 369,
      "Ġcon": 370,
      "ome": 371,
      "ight": 372,
      "Ġwhich": 373,
      "ĠP": 374,
      "Ġk": 375,
      "em": 376,
      "ous": 377,
      "res": 378,
      "ant": 379,
      "ab": 380,
      "Ġ1": 381,
      "to": 382,
      "Ġhave": 383,
      "Ġall": 384,
      "un": 385,
      "Ġfrom": 386,
      "pp": 387,
      "..": 388,
      "Ġshe": 389,
      "um": 390,
      "ĠG": 391,
      "ist": 392,
      "ĠW": 393,
      "Ġbut": 394,
      "ers": 395,
      "Ġr": 396,
      "ĠĠĠ": 397,
      "Ġup": 398,
      "os": 399,
      "Ġne": 400,
      "ate": 401,
      "Ġex": 402,
      "ĠL": 403,
      "our": 404,
      "ard": 405,
      "Ġthis": 406,
      "art": 407,
      "el": 408,
      "Ġsh": 409,
      "ust": 410,
      "Ġwhe": 411,
      "la": 412,
      "ive": 413,
      "def": 414,
      "ind": 415,
      "ĠF": 416,
      "ig": 417,
      "Ġdo": 418,
      "out": 419,
      "ĠĠĠĠĠĠĠĠ": 420,
      "Ġthey": 421,
      "Ġman": 422,
      "ast": 423,
      "Ġwho": 424,
      "Ġwere": 425,
      "Ġwor": 426,
      "nt": 427,
      "ect": 428,
      "ame": 429,
      "Ġsaid": 430,
      "ong": 431,
      "Ġal": 432,
      "Ġcom": 433,
      "ound": 434,
      "ĠD": 435,
      "op": 436,
      "ell": 437,
      "ĠĠĠĠĠ": 438,
      "ood": 439,
      "iv": 440,
      "ie": 441,
      "ort": 442,
      "od": 443,
      "Ġare": 444,
      "Ġone": 445,
      "'s": 446,
      "00": 447,
      "The": 448,
      "very": 449,
      "one": 450,
      "sel": 451,
      "ity": 452,
      "ĠE": 453,
      "Ġno": 454,
      "Ġpro": 455,
      "age": 456,
      "ets": 457,
      "han": 458,
      "pt": 459,
      "Ġab": 460,
      "ne": 461,
      "ak": 462,
      "Ġthem": 463,
      "lo": 464,
      "ure": 465,
      "ĠO": 466,
      "Ġtheir": 467,
      "ry": 468,
      "ag": 469,
      "ost": 470,
      "ĠâĢľ": 471,
      "ine": 472,
      "ough": 473,
      "ci": 474,
      "ĠN": 475,
      "hw": 476,
      "19": 477,
      "ook": 478,
      "te": 479,
      "ber": 480,
      "Ġqu": 481,
      "own": 482,
      "reat": 483,
      "Ġun": 484,
      "Ġout": 485,
      ">,": 486,
      "Ġ\"": 487,
      "ther": 488,
      "ĠR": 489,
      "Ġle": 490,
      "itt": 491,
      "ide": 492,
      "Ġj": 493,
      "Ġthere": 494,
      "Ġwould": 495,
      "ment": 496,
      "ac": 497,
      "ies": 498,
      "ff": 499,
      "per": 500,
      ".]": 501,
      "ud": 502,
      ".âĢĿ": 503,
      "ass": 504,
      "self": 505,
      "ĠHe": 506,
      "Ġag": 507,
      "hed": 508,
      "18": 509,
      "Ġbeen": 510,
      "Ġwill": 511,
      "Ġar": 512,
      "ond": 513,
      "able": 514,
      "Ġli": 515,
      "Ġany": 516,
      "ice": 517,
      "au": 518,
      "ven": 519,
      "ake": 520,
      "ance": 521,
      "ord": 522,
      "Ġkn": 523,
      "ish": 524,
      "Ġwhen": 525,
      "cc": 526,
      "Ġsp": 527,
      "Ġfe": 528,
      "ĠJ": 529,
      "ence": 530,
      "Ġgo": 531,
      "Ġfa": 532,
      "âĢĶ": 533,
      "Ġus": 534,
      "pl": 535,
      "ark": 536,
      "hi": 537,
      "12": 538,
      "Ġsha": 539,
      "ite": 540,
      "ime": 541,
      "are": 542,
      "urn": 543,
      "Ġyour": 544,
      "13": 545,
      "?)": 546,
      "Ġam": 547,
      "Ġif": 548,
      "Ġdis": 549,
      "15": 550,
      "Ġother": 551,
      "Ġmore": 552,
      "14": 553,
      "Ġro": 554,
      "ru": 555,
      "16": 556,
      "of": 557,
      "we": 558,
      ">(": 559,
      "ep": 560,
      "17": 561,
      "ble": 562,
      ",âĢĿ": 563,
      "Ġwhat": 564,
      "10": 565,
      "Ġen": 566,
      "Ġinto": 567,
      "way": 568,
      "ally": 569,
      "Ġcan": 570,
      "94": 571,
      ".\"": 572,
      "ire": 573,
      "Ġad": 574,
      "Ġsome": 575,
      "nder": 576,
      "ran": 577,
      "other": 578,
      "Ġper": 579,
      "....": 580,
      "ĠAnd": 581,
      "ose": 582,
      "Ġim": 583,
      "ree": 584,
      "87": 585,
      "85": 586,
      "23": 587,
      "Ġcould": 588,
      "25": 589,
      "24": 590,
      "86": 591,
      "84": 592,
      "ade": 593,
      "ove": 594,
      "ng": 595,
      "83": 596,
      "Ġpr": 597,
      "27": 598,
      "ress": 599,
      "26": 600,
      "ap": 601,
      "ary": 602,
      "93": 603,
      "ars": 604,
      "ount": 605,
      "20": 606,
      "fter": 607,
      "ink": 608,
      "for": 609,
      "ings": 610,
      "Ġupon": 611,
      "ought": 612,
      "Ġtw": 613,
      "be": 614,
      "ated": 615,
      "97": 616,
      "Ġthan": 617,
      "ions": 618,
      "bl": 619,
      "95": 620,
      "wn": 621,
      "Ġ[": 622,
      "ĠIt": 623,
      "96": 624,
      "Ġvery": 625,
      "ety": 626,
      "ack": 627,
      "90": 628,
      "fore": 629,
      "Ġpl": 630,
      "ĠMr": 631,
      "ject": 632,
      "Ġknow": 633,
      "hing": 634,
      "ick": 635,
      "80": 636,
      "Ġlike": 637,
      "ittle": 638,
      "tain": 639,
      "av": 640,
      "Ġabout": 641,
      "ied": 642,
      "âĢĺ": 643,
      "Ġ_": 644,
      "Ġdid": 645,
      "Ġtime": 646,
      "oll": 647,
      "so": 648,
      "ian": 649,
      "ach": 650,
      "Ġover": 651,
      "Ġpart": 652,
      "Ġwork": 653,
      "Ġhas": 654,
      "Ġnow": 655,
      "Ġsee": 656,
      "ull": 657,
      "uch": 658,
      "ness": 659,
      "Ġoff": 660,
      "ious": 661,
      "Ġagain": 662,
      "Ġbr": 663,
      "Ġgreat": 664,
      "ved": 665,
      "Ġgr": 666,
      "Ġhand": 667,
      "ather": 668,
      "Ġday": 669,
      "ex": 670,
      "ote": 671,
      "ife": 672,
      "Ġour": 673,
      ".)": 674,
      "Ġsay": 675,
      "Ġtoo": 676,
      "Ġlook": 677,
      "old": 678,
      "Ġthen": 679,
      "man": 680,
      "Ġpe": 681,
      "his": 682,
      "ue": 683,
      "Ġlittle": 684,
      "right": 685,
      "Ġcha": 686,
      "Ġpre": 687,
      "end": 688,
      "ile": 689,
      "iss": 690,
      ",\"": 691,
      "Ġshould": 692,
      "Ã©": 693,
      "ĠBut": 694,
      "ons": 695,
      "orn": 696,
      "Ġpo": 697,
      "ise": 698,
      "li": 699,
      "Ġdes": 700,
      "Ġonly": 701,
      "ward": 702,
      "ĠY": 703,
      "Ġits": 704,
      "ign": 705,
      "Ġafter": 706,
      "Ġunder": 707,
      "ful": 708,
      "int": 709,
      "bs": 710,
      "ps": 711,
      "Ġla": 712,
      "Ġgood": 713,
      "Ġye": 714,
      "page": 715,
      "Ġmay": 716,
      "Ġmade": 717,
      "de": 718,
      "Ġspe": 719,
      "ath": 720,
      "fld": 721,
      "33": 722,
      "Ġcomp": 723,
      "Ġdown": 724,
      "65": 725,
      "ia": 726,
      "ee": 727,
      "Xpage": 728,
      "Ġthr": 729,
      "irst": 730,
      "44": 731,
      "Ġbl": 732,
      "ty": 733,
      "Ġcl": 734,
      "ren": 735,
      "oy": 736,
      "77": 737,
      "Ġbefore": 738,
      "Ġsm": 739,
      "Ġlong": 740,
      "Ġtwo": 741,
      "ced": 742,
      "ces": 743,
      "lock": 744,
      "cl": 745,
      "Ġra": 746,
      "Ġfl": 747,
      "?âĢĿ": 748,
      "Ġsuch": 749,
      "Ġhow": 750,
      "Ġrem": 751,
      "Ġsc": 752,
      "Ġmust": 753,
      "hen": 754,
      "ens": 755,
      "Ġwhere": 756,
      "35": 757,
      "ms": 758,
      "Ġtr": 759,
      "col": 760,
      "Ġ--": 761,
      "Ġmuch": 762,
      "45": 763,
      "'t": 764,
      "Ġ0": 765,
      "60": 766,
      "Ġown": 767,
      "Ġcont": 768,
      "Ġres": 769,
      "30": 770,
      "75": 771,
      "ady": 772,
      "ĠIn": 773,
      "iz": 774,
      "ave": 775,
      "ouse": 776,
      "Ġshall": 777,
      "ily": 778,
      "me": 779,
      "Ġway": 780,
      "Ġold": 781,
      "40": 782,
      "oss": 783,
      "og": 784,
      "Ġpla": 785,
      "Ġacc": 786,
      "Ġbet": 787,
      "that": 788,
      "ked": 789,
      "Ġcome": 790,
      "ĠK": 791,
      ">[": 792,
      "mer": 793,
      "Ġfirst": 794,
      "ving": 795,
      "Ġey": 796,
      "ations": 797,
      "oth": 798,
      "Ġ2": 799,
      "led": 800,
      "ory": 801,
      "ried": 802,
      "Ġcame": 803,
      "ĠU": 804,
      "fe": 805,
      "70": 806,
      "Ġbeing": 807,
      "Ġnever": 808,
      "ors": 809,
      "Ġevery": 810,
      "ater": 811,
      "Ġ(?)": 812,
      "ĠĠĠĠĠĠĠĠĠĠĠĠĠĠĠĠ": 813,
      "Ġthese": 814,
      "Ġmen": 815,
      "sp": 816,
      "con": 817,
      "Ġmight": 818,
      "ult": 819,
      "Ġbec": 820,
      "?)</": 821,
      "ition": 822,
      "ĠV": 823,
      "ase": 824,
      "66": 825,
      "ction": 826,
      ">(?)</": 827,
      "Ġimp": 828,
      ".]</": 829,
      "><": 830,
      "ans": 831,
      "Ġthink": 832,
      "Ġback": 833,
      "ph": 834,
      "Ġpass": 835,
      "Ġeven": 836,
      "Ġwell": 837,
      "cd": 838,
      "ical": 839,
      "Ġmost": 840,
      "Ġcomm": 841,
      "hes": 842,
      "Ġcall": 843,
      "but": 844,
      "Ġ.": 845,
      "ict": 846,
      "ause": 847,
      "ople": 848,
      "ĠSt": 849,
      "ĠShe": 850,
      "ang": 851,
      "),": 852,
      "Ġdist": 853,
      "Ġmake": 854,
      "omet": 855,
      "uten": 856,
      "less": 857,
      "Ġwr": 858,
      "And": 859,
      "ves": 860,
      "Ġ(?),": 861,
      "berg": 862,
      "Ġapp": 863,
      "Ġthought": 864,
      "Ġhimself": 865,
      "He": 866,
      "ĠPro": 867,
      "ret": 868,
      "Ġcons": 869,
      "row": 870,
      "Ġgl": 871,
      "not": 872,
      "Ġlet": 873,
      "block": 874,
      "Ġthrough": 875,
      "med": 876,
      "Ġseem": 877,
      "Ġchi": 878,
      "land": 879,
      "Ġch": 880,
      "wh": 881,
      "Ġser": 882,
      "pect": 883,
      "quote": 884,
      "blockquote": 885,
      "utenberg": 886,
      "Ġap": 887,
      "with": 888,
      "Ġlife": 889,
      "89": 890,
      "les": 891,
      "Ġrep": 892,
      "ract": 893,
      "Ġem": 894,
      "Ġbeg": 895,
      "Ġco": 896,
      "Ġwithout": 897,
      "Ġent": 898,
      "36": 899,
      "82": 900,
      "37": 901,
      "ened": 902,
      "ix": 903,
      "Ġwent": 904,
      "ever": 905,
      "igh": 906,
      "Ġword": 907,
      "ron": 908,
      "ted": 909,
      "ial": 910,
      "com": 911,
      "46": 912,
      "Ġhere": 913,
      "Ġdon": 914,
      "riend": 915,
      "ered": 916,
      "47": 917,
      "up": 918,
      "ait": 919,
      "Ġaway": 920,
      "Ġhead": 921,
      "Ġpres": 922,
      "Ġke": 923,
      "ged": 924,
      "ener": 925,
      "Ġturn": 926,
      "!âĢĿ": 927,
      "du": 928,
      "ĠTo": 929,
      "ower": 930,
      "Ġear": 931,
      "Ġjust": 932,
      "ertain": 933,
      "Ġthose": 934,
      "ple": 935,
      "Ġalso": 936,
      "Ġmany": 937,
      "ace": 938,
      "Ġret": 939,
      "ible": 940,
      "Ġfound": 941,
      "55": 942,
      "ince": 943,
      "Ġlast": 944,
      "get": 945,
      "........": 946,
      "lf": 947,
      "ĠâĢĺ": 948,
      "ER": 949,
      "99": 950,
      "und": 951,
      "mark": 952,
      "Ġeyes": 953,
      "ished": 954,
      "Ġop": 955,
      "hy": 956,
      "Ġcar": 957,
      "Ġlo": 958,
      "It": 959,
      "ip": 960,
      "Ġac": 961,
      "Ġ&": 962,
      "Ġte": 963,
      "Ġpeople": 964,
      "ates": 965,
      "ner": 966,
      "oman": 967,
      "Ġbel": 968,
      "here": 969,
      "Ġend": 970,
      "ĠSee": 971,
      "Ġ3": 972,
      "Ġpers": 973,
      "Ġet": 974,
      "atter": 975,
      "vent": 976,
      "ense": 977,
      "su": 978,
      "aking": 979,
      "?\"": 980,
      "50": 981,
      "cy": 982,
      "></": 983,
      "lect": 984,
      "ks": 985,
      "Ġatt": 986,
      "Ġsame": 987,
      "ared": 988,
      "ale": 989,
      "Ġhouse": 990,
      "Ġfriend": 991,
      "Ġcount": 992,
      "Ġright": 993,
      "den": 994,
      "Ġstill": 995,
      "Ġhar": 996,
      "22": 997,
      "Ġget": 998,
      "Ġplace": 999,
      "ail": 1000,
      "ody": 1001,
      "thing": 1002,
      "Ġsupp": 1003,
      "cess": 1004,
      "Ġset": 1005,
      "To": 1006,
      "ĠProject": 1007,
      "Ġter": 1008,
      "ss": 1009,
      "Ġsec": 1010,
      "Ġyoung": 1011,
      "ither": 1012,
      "Ġnew": 1013,
      "Ġtake": 1014,
      "43": 1015,
      "ting": 1016,
      "vers": 1017,
      "ways": 1018,
      "ollow": 1019,
      "ined": 1020,
      "ild": 1021,
      "ual": 1022,
      "air": 1023,
      "eth": 1024,
      "76": 1025,
      "was": 1026,
      "ĠYou": 1027,
      "Ġtell": 1028,
      "In": 1029,
      "Ġsomet": 1030,
      "Ġcour": 1031,
      "Ġtra": 1032,
      "Ġput": 1033,
      "har": 1034,
      "ited": 1035,
      "88": 1036,
      "Ġsub": 1037,
      "ently": 1038,
      "Ġsur": 1039,
      "Ġheart": 1040,
      "Ġnight": 1041,
      "Ġche": 1042,
      "ular": 1043,
      "Ġinst": 1044,
      "Ġlove": 1045,
      "alk": 1046,
      "Ġever": 1047,
      "ĠGutenberg": 1048,
      "imes": 1049,
      "Ġwant": 1050,
      "Ġface": 1051,
      "Ġyet": 1052,
      "cept": 1053,
      "Ġexp": 1054,
      "ning": 1055,
      "der": 1056,
      "Ġsaw": 1057,
      "Ġmar": 1058,
      "Ġsl": 1059,
      "its": 1060,
      "iness": 1061,
      "Ġappe": 1062,
      "Ġgra": 1063,
      "Ġchild": 1064,
      "ents": 1065,
      "ier": 1066,
      "But": 1067,
      "Ġple": 1068,
      "Ġnat": 1069,
      "Ġmind": 1070,
      "ten": 1071,
      "Ġact": 1072,
      "rew": 1073,
      "rest": 1074,
      "Ġfar": 1075,
      "aut": 1076,
      "Ġwhile": 1077,
      "co": 1078,
      "Ġob": 1079,
      "ins": 1080,
      "Ġanother": 1081,
      "ived": 1082,
      "Ġbo": 1083,
      "92": 1084,
      "Ġ'": 1085,
      "You": 1086,
      "Ġthings": 1087,
      "Ġind": 1088,
      "by": 1089,
      "Ġlight": 1090,
      "Ġthough": 1091,
      "ĠThey": 1092,
      "._": 1093,
      "Ġyears": 1094,
      "ĠAn": 1095,
      "my": 1096,
      "eft": 1097,
      "Ġint": 1098,
      "Ġsw": 1099,
      "Ġtook": 1100,
      "ating": 1101,
      "Ġname": 1102,
      "Ġreg": 1103,
      "ool": 1104,
      "Ġwar": 1105,
      "most": 1106,
      "Ġkind": 1107,
      "Ġgive": 1108,
      "ĠGod": 1109,
      "ton": 1110,
      "Ġworld": 1111,
      "Ġcalled": 1112,
      "new": 1113,
      "Ġleft": 1114,
      "you": 1115,
      "act": 1116,
      "ĠTh": 1117,
      "ĠCh": 1118,
      "Ġagainst": 1119,
      "osed": 1120,
      "ubl": 1121,
      "gg": 1122,
      "ib": 1123,
      "ched": 1124,
      "Ġnothing": 1125,
      "ween": 1126,
      "Ġthing": 1127,
      "ts": 1128,
      "Ġcr": 1129,
      "uth": 1130,
      "Ġonce": 1131,
      "pr": 1132,
      "ures": 1133,
      "ĠThere": 1134,
      "Ġhapp": 1135,
      "ired": 1136,
      "Ġho": 1137,
      "Ġconf": 1138,
      ".)</": 1139,
      "sh": 1140,
      "Ġfind": 1141,
      "Ġrest": 1142,
      "Ġthree": 1143,
      "Ġfollow": 1144,
      "ĠFor": 1145,
      "aid": 1146,
      "any": 1147,
      "Ġchan": 1148,
      ".,": 1149,
      "Ġform": 1150,
      "Ġlooked": 1151,
      "Ġpur": 1152,
      "ĠWe": 1153,
      "ling": 1154,
      "Ġreturn": 1155,
      "aught": 1156,
      "no": 1157,
      "Ġmo": 1158,
      "Ġgu": 1159,
      "pped": 1160,
      "73": 1161,
      "56": 1162,
      "Ġdif": 1163,
      "Ġvo": 1164,
      "Ġfather": 1165,
      "aster": 1166,
      "Ġrel": 1167,
      "Ġgot": 1168,
      "read": 1169,
      "ised": 1170,
      "ute": 1171,
      "ĠIf": 1172,
      "Ġgiv": 1173,
      "cri": 1174,
      "Ġaff": 1175,
      "ger": 1176,
      "ĠAr": 1177,
      "cer": 1178,
      "Ġfell": 1179,
      "Ġthou": 1180,
      "ross": 1181,
      "Ġsmall": 1182,
      "Ġmom": 1183,
      "ows": 1184,
      "Ġhome": 1185,
      "Ġmon": 1186,
      "Ġside": 1187,
      "oun": 1188,
      "ĠMrs": 1189,
      "Ġans": 1190,
      "Ġposs": 1191,
      "Ġwind": 1192,
      "Ġhands": 1193,
      "oot": 1194,
      "Ġpar": 1195,
      "Ġused": 1196,
      "Ġgener": 1197,
      "Ġhaving": 1198,
      "Ġadd": 1199,
      "Ġread": 1200,
      "!\"": 1201,
      "Ġdra": 1202,
      "tend": 1203,
      "irl": 1204,
      "Ġocc": 1205,
      "Ġsat": 1206,
      "Ġ4": 1207,
      "als": 1208,
      "Ġref": 1209,
      "ew": 1210,
      "Ġfull": 1211,
      "Ġnor": 1212,
      "rent": 1213,
      "Ġass": 1214,
      "Ġstre": 1215,
      "Ġheard": 1216,
      "Ġcur": 1217,
      "Ġsil": 1218,
      "Ġinter": 1219,
      "Ġseemed": 1220,
      "ĠAs": 1221,
      "ĠThis": 1222,
      "Ġeach": 1223,
      "Ġroom": 1224,
      ">.</": 1225,
      "Ġrec": 1226,
      "form": 1227,
      "Ġalways": 1228,
      "tm": 1229,
      "ason": 1230,
      "pro": 1231,
      "Ġland": 1232,
      "Ġes": 1233,
      "att": 1234,
      "Ġtold": 1235,
      "Ġwoman": 1236,
      "Ġ5": 1237,
      "ments": 1238,
      "vel": 1239,
      "29": 1240,
      "ug": 1241,
      "Ġri": 1242,
      "Ġson": 1243,
      "Ġwhom": 1244,
      "Ġlaw": 1245,
      "Ġbetween": 1246,
      "Ġstr": 1247,
      "Ġcertain": 1248,
      "Ġdone": 1249,
      "34": 1250,
      "ĠEng": 1251,
      "74": 1252,
      "Ġinf": 1253,
      "Ġdoor": 1254,
      "Ġest": 1255,
      "Ġasked": 1256,
      "apt": 1257,
      "Ġgoing": 1258,
      "Ġperson": 1259,
      "Ġcle": 1260,
      "cha": 1261,
      "Ġnear": 1262,
      "OR": 1263,
      "ities": 1264,
      "elt": 1265,
      "Ġfeel": 1266,
      "ĠThen": 1267,
      "Ġlar": 1268,
      "----": 1269,
      "ric": 1270,
      "Ġsoon": 1271,
      ">.]</": 1272,
      "men": 1273,
      "atch": 1274,
      ",âĢĻ": 1275,
      "Ġmin": 1276,
      "gether": 1277,
      "lack": 1278,
      "Ġmoment": 1279,
      "Ġbecause": 1280,
      "ield": 1281,
      "Ġhum": 1282,
      "Ġfew": 1283,
      "aken": 1284,
      "ement": 1285,
      "Ġi": 1286,
      "Ġadv": 1287,
      "outh": 1288,
      "Ġuse": 1289,
      "Ġboth": 1290,
      "ĠSo": 1291,
      "aring": 1292,
      "wor": 1293,
      "Ġsent": 1294,
      "Ġdel": 1295,
      "Ġhor": 1296,
      "11": 1297,
      "br": 1298,
      "Ġwater": 1299,
      "Ġamong": 1300,
      "ribut": 1301,
      "aw": 1302,
      "Ġsomething": 1303,
      "ec": 1304,
      "000": 1305,
      "Ġknew": 1306,
      "ude": 1307,
      "Ġeff": 1308,
      ">.": 1309,
      "alt": 1310,
      "Ġdec": 1311,
      "Ġpleas": 1312,
      "Ġthy": 1313,
      "Ġpoint": 1314,
      "Ġfr": 1315,
      "AR": 1316,
      "ft": 1317,
      "ung": 1318,
      "Ġdeath": 1319,
      ".âĢĻ": 1320,
      "ister": 1321,
      "ub": 1322,
      "ublic": 1323,
      "had": 1324,
      "mon": 1325,
      "What": 1326,
      "selves": 1327,
      "Ġfam": 1328,
      "Ġfore": 1329,
      "Ġexc": 1330,
      "which": 1331,
      "Ġbro": 1332,
      "xt": 1333,
      "wards": 1334,
      "imp": 1335,
      "Ġinc": 1336,
      "ific": 1337,
      "28": 1338,
      "EN": 1339,
      "Ġseen": 1340,
      "Ġ6": 1341,
      "Ġcop": 1342,
      "oney": 1343,
      "oud": 1344,
      "rit": 1345,
      "Ġste": 1346,
      "Ġbus": 1347,
      "Ġdays": 1348,
      "ative": 1349,
      "Ġmother": 1350,
      "Ġbetter": 1351,
      "Ġhour": 1352,
      "Ġart": 1353,
      "ius": 1354,
      "Ġdisc": 1355,
      "Ġmyself": 1356,
      "Ġdef": 1357,
      "Obs": 1358,
      "ned": 1359,
      "98": 1360,
      "now": 1361,
      "ob": 1362,
      "Ġhel": 1363,
      "Ġhalf": 1364,
      "Ġsk": 1365,
      "Ġbre": 1366,
      "ison": 1367,
      "ection": 1368,
      "Ġext": 1369,
      "ering": 1370,
      "entle": 1371,
      "ĠÃ": 1372,
      "Ġserv": 1373,
      "oul": 1374,
      "day": 1375,
      "Ġwhole": 1376,
      "Ġkeep": 1377,
      "ately": 1378,
      "ird": 1379,
      "Ġhigh": 1380,
      "Ġwords": 1381,
      "que": 1382,
      "orning": 1383,
      "Ġcare": 1384,
      "Ġpower": 1385,
      "ully": 1386,
      "eter": 1387,
      "owed": 1388,
      ")</": 1389,
      "ants": 1390,
      "Ġtre": 1391,
      "Ġrece": 1392,
      "Ġgirl": 1393,
      "Ġcond": 1394,
      "Ġbu": 1395,
      "ĠĠĠĠĠĠ": 1396,
      "Ġquite": 1397,
      "ene": 1398,
      "fort": 1399,
      "ON": 1400,
      "Ġhard": 1401,
      "Ġins": 1402,
      "haps": 1403,
      "vid": 1404,
      "ock": 1405,
      "Ġcountry": 1406,
      "Ġgave": 1407,
      "IN": 1408,
      "stand": 1409,
      "Ġboy": 1410,
      "ĠMar": 1411,
      "che": 1412,
      "oke": 1413,
      "\\'": 1414,
      "Ġless": 1415,
      "Ġround": 1416,
      "Ġdou": 1417,
      "Ġed": 1418,
      "Ġstand": 1419,
      "Ġbelie": 1420,
      "HE": 1421,
      "ken": 1422,
      "Ġvis": 1423,
      "That": 1424,
      "une": 1425,
      "ank": 1426,
      "57": 1427,
      "Ġturned": 1428,
      "az": 1429,
      "She": 1430,
      "ually": 1431,
      "ient": 1432,
      "Ġenough": 1433,
      "gr": 1434,
      "Ġair": 1435,
      "Ġmatter": 1436,
      "_,": 1437,
      "Ġbest": 1438,
      "Ġking": 1439,
      "ĠAl": 1440,
      "terest": 1441,
      "ĠHis": 1442,
      "67": 1443,
      "ĠJo": 1444,
      "aint": 1445,
      "ĠThat": 1446,
      "63": 1447,
      "Ġcol": 1448,
      "ĠUn": 1449,
      "Ġcourse": 1450,
      "ines": 1451,
      "uring": 1452,
      "ery": 1453,
      "him": 1454,
      "Ġ+": 1455,
      "pend": 1456,
      "Ġchar": 1457,
      "Ġstate": 1458,
      "Ġtru": 1459,
      "Ġopen": 1460,
      "Ġhon": 1461,
      "Ġbegan": 1462,
      "ott": 1463,
      "used": 1464,
      "ane": 1465,
      "II": 1466,
      "Ġ-": 1467,
      "Ġnum": 1468,
      "rist": 1469,
      "ying": 1470,
      "ĠWhen": 1471,
      "ressed": 1472,
      "64": 1473,
      "ĠMiss": 1474,
      "Ġdep": 1475,
      "iter": 1476,
      "Ġthee": 1477,
      "laim": 1478,
      "Ġtri": 1479,
      "Ġunt": 1480,
      "ĠAt": 1481,
      "Ġvoice": 1482,
      "hip": 1483,
      "Ġsy": 1484,
      "An": 1485,
      "AN": 1486,
      "Ġmean": 1487,
      "ey": 1488,
      "Ġprodu": 1489,
      "Ġpri": 1490,
      "bed": 1491,
      "use": 1492,
      "53": 1493,
      "Ġ18": 1494,
      "Ġwhite": 1495,
      "ably": 1496,
      "ility": 1497,
      "hn": 1498,
      "vern": 1499,
      "ern": 1500,
      "irc": 1501,
      "spn": 1502,
      "ax": 1503,
      "Ġdire": 1504,
      "Ġpresent": 1505,
      "Ġrun": 1506,
      "ution": 1507,
      "Ġfall": 1508,
      "ho": 1509,
      "mb": 1510,
      "Ġel": 1511,
      "54": 1512,
      "Ġhold": 1513,
      "Ġmet": 1514,
      "Ġworks": 1515,
      "ages": 1516,
      "king": 1517,
      "io": 1518,
      "Ġinde": 1519,
      "ceed": 1520,
      "ury": 1521,
      "uc": 1522,
      "Ġmorning": 1523,
      "Ġlarge": 1524,
      "range": 1525,
      "ider": 1526,
      "Ġdear": 1527,
      "Ġsince": 1528,
      "ained": 1529,
      "unt": 1530,
      "Ġelect": 1531,
      "?;": 1532,
      "ention": 1533,
      "Ġsle": 1534,
      "Ġpoor": 1535,
      "amp": 1536,
      "Ġcried": 1537,
      "No": 1538,
      "ives": 1539,
      "Ġstood": 1540,
      "Ġqui": 1541,
      "ides": 1542,
      "uck": 1543,
      "bt": 1544,
      "Ġdoes": 1545,
      "Ġcor": 1546,
      "ured": 1547,
      "Ġfelt": 1548,
      "Ġbed": 1549,
      "Ġanything": 1550,
      "Ġlay": 1551,
      "Ġalmost": 1552,
      "Ġdark": 1553,
      "Ġsure": 1554,
      "Ġtran": 1555,
      "Ġopp": 1556,
      "Ġbrought": 1557,
      "gin": 1558,
      "Ġrather": 1559,
      "Ġmoney": 1560,
      "Ġsun": 1561,
      "min": 1562,
      "Ġbook": 1563,
      "Ġswe": 1564,
      "ert": 1565,
      "Ġbeh": 1566,
      "Ġtill": 1567,
      "Ġbody": 1568,
      "ĠLord": 1569,
      "Ġletter": 1570,
      "Ġwhose": 1571,
      "**": 1572,
      "Ġgentle": 1573,
      "bit": 1574,
      "Ġprop": 1575,
      "ring": 1576,
      "ality": 1577,
      "Ġcontin": 1578,
      "Ġsuff": 1579,
      "Ġtogether": 1580,
      "Ġinv": 1581,
      "Ġhear": 1582,
      "Ġneed": 1583,
      "Ġhelp": 1584,
      "Ġwife": 1585,
      "Ġfact": 1586,
      "oc": 1587,
      "cious": 1588,
      "Ġplay": 1589,
      "osition": 1590,
      "ream": 1591,
      "plied": 1592,
      "na": 1593,
      "iew": 1594,
      "empt": 1595,
      "ĠWhat": 1596,
      "Ġprom": 1597,
      "Ġfour": 1598,
      "par": 1599,
      "she": 1600,
      "lish": 1601,
      "Ġincl": 1602,
      "There": 1603,
      "Ġgiven": 1604,
      "Ġobs": 1605,
      "erv": 1606,
      "Ġsing": 1607,
      "ash": 1608,
      "undred": 1609,
      "Ġbeaut": 1610,
      "son": 1611,
      "ural": 1612,
      "We": 1613,
      "Ġearth": 1614,
      "Ġspeak": 1615,
      "fully": 1616,
      "ES": 1617,
      "ized": 1618,
      "ism": 1619,
      "what": 1620,
      "Ġce": 1621,
      "Ġbar": 1622,
      "omen": 1623,
      "ached": 1624,
      "ians": 1625,
      "ĠIs": 1626,
      "ĠKing": 1627,
      "hil": 1628,
      "Ġclo": 1629,
      "Ġquest": 1630,
      "Ġwond": 1631,
      "'ll": 1632,
      "Ġothers": 1633,
      "ident": 1634,
      "Ġinterest": 1635,
      "Ġsir": 1636,
      "Ġtaken": 1637,
      "Ġaw": 1638,
      "Ġspir": 1639,
      "Ġunto": 1640,
      "Ġnext": 1641,
      "Ġequ": 1642,
      "Ġbra": 1643,
      "ĠSir": 1644,
      "dden": 1645,
      "Ġill": 1646,
      "Ġmer": 1647,
      "Ġshort": 1648,
      "Ġtalk": 1649,
      "Ġcannot": 1650,
      "Ġherself": 1651,
      "Ġuntil": 1652,
      "Ġfire": 1653,
      "This": 1654,
      "cial": 1655,
      "Ġoften": 1656,
      "Ġwithin": 1657,
      "oint": 1658,
      "akes": 1659,
      "Ġcap": 1660,
      "Ġsea": 1661,
      "from": 1662,
      "03": 1663,
      "05": 1664,
      "Ġblack": 1665,
      "Ġyear": 1666,
      "raph": 1667,
      "mp": 1668,
      "Ġfin": 1669,
      "sd": 1670,
      "Ġhope": 1671,
      "do": 1672,
      "Ġdev": 1673,
      "ronic": 1674,
      "iled": 1675,
      "aven": 1676,
      "Ġfeet": 1677,
      "Zo": 1678,
      "Ġsound": 1679,
      "like": 1680,
      "Ġdi": 1681,
      "have": 1682,
      "Ġgone": 1683,
      "Ġred": 1684,
      "where": 1685,
      "06": 1686,
      "ains": 1687,
      "ĠOF": 1688,
      "91": 1689,
      "ches": 1690,
      "Ġsudden": 1691,
      ").": 1692,
      "?/": 1693,
      "Ġir": 1694,
      "Ġsays": 1695,
      "eng": 1696,
      "Ġmanner": 1697,
      "................": 1698,
      "ready": 1699,
      "Ġwait": 1700,
      "Ġide": 1701,
      "Ġdead": 1702,
      "Ġque": 1703,
      "Yes": 1704,
      "ont": 1705,
      "Oh": 1706,
      "Ġlady": 1707,
      "ĠPr": 1708,
      "Ġreason": 1709,
      "Ġgre": 1710,
      "Ġpol": 1711,
      "Ġpublic": 1712,
      "fect": 1713,
      "Ġfree": 1714,
      "Ġmod": 1715,
      "Ġchildren": 1716,
      "ĠOn": 1717,
      "Ġsecond": 1718,
      "wer": 1719,
      "Ġdr": 1720,
      "fic": 1721,
      "Ġmil": 1722,
      "tern": 1723,
      "Ġstrong": 1724,
      "ĠNo": 1725,
      "Ġhowever": 1726,
      "Ġdiffe": 1727,
      "ission": 1728,
      "iving": 1729,
      "CH": 1730,
      "Ġalone": 1731,
      "Ġmis": 1732,
      "ousand": 1733,
      "rence": 1734,
      "Ġfriends": 1735,
      "ember": 1736,
      "meric": 1737,
      "04": 1738,
      "Ġorder": 1739,
      "Ġhundred": 1740,
      "ards": 1741,
      "Ġemp": 1742,
      "Ġmeans": 1743,
      "Ġabove": 1744,
      "Ġtrue": 1745,
      "go": 1746,
      "Ġthus": 1747,
      "urch": 1748,
      "Ġforth": 1749,
      "Ġconst": 1750,
      "itted": 1751,
      "Ġsign": 1752,
      "app": 1753,
      "ah": 1754,
      "Ġ7": 1755,
      "illed": 1756,
      "As": 1757,
      "overed": 1758,
      "arch": 1759,
      "rop": 1760,
      "Ġalong": 1761,
      "body": 1762,
      "Th": 1763,
      "ĠQ": 1764,
      "Well": 1765,
      "Ġlau": 1766,
      "Ġbusiness": 1767,
      "Ġreplied": 1768,
      "Ġdiv": 1769,
      "07": 1770,
      "ances": 1771,
      ".--": 1772,
      "orrow": 1773,
      "ĠInd": 1774,
      "Ġcommon": 1775,
      "racter": 1776,
      "owing": 1777,
      "TER": 1778,
      "word": 1779,
      "ham": 1780,
      "let": 1781,
      "ley": 1782,
      "ĠHer": 1783,
      "Ġcirc": 1784,
      "Ġleg": 1785,
      "Ġadm": 1786,
      "yn": 1787,
      "Ġvar": 1788,
      "Ġthemselves": 1789,
      "ices": 1790,
      "Ġheld": 1791,
      "ats": 1792,
      "Ġwood": 1793,
      "they": 1794,
      "Ġpassed": 1795,
      "cing": 1796,
      "veral": 1797,
      "uss": 1798,
      "Ġindeed": 1799,
      "cul": 1800,
      "wered": 1801,
      "Ġcent": 1802,
      "aving": 1803,
      "ĠOf": 1804,
      "ience": 1805,
      "enty": 1806,
      "hak": 1807,
      "Ġcopy": 1808,
      "ĠJohn": 1809,
      "Ġeas": 1810,
      "ĠChrist": 1811,
      "ev": 1812,
      "ught": 1813,
      "Ġgold": 1814,
      "Ġbelieve": 1815,
      "Ġfear": 1816,
      "Ġcase": 1817,
      "Ġground": 1818,
      "tered": 1819,
      "Ġprof": 1820,
      "Ġreal": 1821,
      "ney": 1822,
      "Ġlive": 1823,
      "cent": 1824,
      "Ġcoll": 1825,
      "Ġav": 1826,
      "there": 1827,
      "Ġstra": 1828,
      "Ġtown": 1829,
      "Ġbur": 1830,
      "Mr": 1831,
      "uff": 1832,
      "Ġfair": 1833,
      "For": 1834,
      "Ġsubject": 1835,
      "Ġsol": 1836,
      "Ġbrother": 1837,
      "Ġrequ": 1838,
      "Ġma": 1839,
      "Ġprin": 1840,
      "Ġleast": 1841,
      "ĠSp": 1842,
      "ĠOne": 1843,
      "rying": 1844,
      "Ġpay": 1845,
      "Ġtem": 1846,
      "Then": 1847,
      "well": 1848,
      "IS": 1849,
      "Ġsoul": 1850,
      "ster": 1851,
      "Ġleave": 1852,
      "ided": 1853,
      "iol": 1854,
      "Ġfort": 1855,
      "Ġtimes": 1856,
      "Ġmeet": 1857,
      "Ġlooking": 1858,
      "Ġstart": 1859,
      "head": 1860,
      "Ġlear": 1861,
      "Ġpat": 1862,
      "Ġsim": 1863,
      "orts": 1864,
      "ze": 1865,
      "ium": 1866,
      "icular": 1867,
      "Ġdri": 1868,
      "ccess": 1869,
      "Ġten": 1870,
      "ones": 1871,
      "Ġeither": 1872,
      "Ġprov": 1873,
      "ued": 1874,
      "Ġvol": 1875,
      "alth": 1876,
      "ien": 1877,
      "Ġclose": 1878,
      "alked": 1879,
      "42": 1880,
      "ma": 1881,
      "mbl": 1882,
      "Ġabs": 1883,
      "AP": 1884,
      "Ġnature": 1885,
      "aughter": 1886,
      "Ġwish": 1887,
      "If": 1888,
      "Ġeng": 1889,
      "Ġperhaps": 1890,
      "Ġbehind": 1891,
      "Ġanswered": 1892,
      "Ġdeep": 1893,
      "Ã¨": 1894,
      "Ġthousand": 1895,
      "side": 1896,
      "ĠÃł": 1897,
      "ames": 1898,
      "ased": 1899,
      "this": 1900,
      "Ġseveral": 1901,
      "Ġstru": 1902,
      "Ġhorse": 1903,
      "ining": 1904,
      "Ġsch": 1905,
      "Ġwall": 1906,
      "49": 1907,
      "Ġknown": 1908,
      "Ġarm": 1909,
      "ĠAmeric": 1910,
      "cle": 1911,
      "Ġlead": 1912,
      "Ġfur": 1913,
      "night": 1914,
      "St": 1915,
      "Ġsum": 1916,
      "Ġbring": 1917,
      "Ġexpl": 1918,
      "ĠAll": 1919,
      "itten": 1920,
      "eg": 1921,
      "My": 1922,
      "Ġblood": 1923,
      "ek": 1924,
      "Ġbes": 1925,
      "AT": 1926,
      "ational": 1927,
      "dis": 1928,
      "Pro": 1929,
      "__": 1930,
      "Ġagre": 1931,
      "32": 1932,
      "oura": 1933,
      "hile": 1934,
      "Ġsix": 1935,
      "Ġpa": 1936,
      "Ġaccount": 1937,
      "Ġdoubt": 1938,
      "atic": 1939,
      "iful": 1940,
      "ected": 1941,
      "dle": 1942,
      "ump": 1943,
      "ear": 1944,
      "Ġca": 1945,
      "Ġve": 1946,
      "Ġhuman": 1947,
      "ĠGr": 1948,
      "mber": 1949,
      "ony": 1950,
      "ny": 1951,
      "Ġcity": 1952,
      "Ġmark": 1953,
      "pre": 1954,
      "Ġunderstand": 1955,
      "Ġmid": 1956,
      "Ġarms": 1957,
      "irt": 1958,
      "ĠMy": 1959,
      "Ġtrou": 1960,
      "ize": 1961,
      "ising": 1962,
      "under": 1963,
      "Ġcf": 1964,
      "ux": 1965,
      "ges": 1966,
      "Ġalready": 1967,
      "band": 1968,
      "Ġ19": 1969,
      "ĠCom": 1970,
      "ca": 1971,
      "Ġfoot": 1972,
      "'d": 1973,
      "Ġexpect": 1974,
      "itude": 1975,
      "Ġran": 1976,
      "Ġlow": 1977,
      "Ġproper": 1978,
      "were": 1979,
      "Ġtrans": 1980,
      "Ġcal": 1981,
      "Ġwhy": 1982,
      "taining": 1983,
      "orm": 1984,
      "ĠNew": 1985,
      "aptain": 1986,
      "asion": 1987,
      "them": 1988,
      "They": 1989,
      "So": 1990,
      "When": 1991,
      "gy": 1992,
      "Ġappear": 1993,
      "ĠHow": 1994,
      "ead": 1995,
      "ature": 1996,
      "Ġgeneral": 1997,
      "Ġobject": 1998,
      "val": 1999,
      "ĠX": 2000,
      "Ġfamily": 2001,
      "Ġpast": 2002,
      "Ġlist": 2003,
      "ression": 2004,
      "Ġpain": 2005,
      "48": 2006,
      "fl": 2007,
      "ĠTHE": 2008,
      "Ġlost": 2009,
      "room": 2010,
      "See": 2011,
      "IT": 2012,
      "Ġcause": 2013,
      "Ġcut": 2014,
      "Ġcoming": 2015,
      "39": 2016,
      "Ġjud": 2017,
      "Ġclear": 2018,
      "iously": 2019,
      "hand": 2020,
      "loy": 2021,
      "79": 2022,
      "Ġhast": 2023,
      "cons": 2024,
      "Ġdisp": 2025,
      "Ġcommand": 2026,
      "Ġreturned": 2027,
      "resent": 2028,
      "ging": 2029,
      "Ġut": 2030,
      "Ġcharacter": 2031,
      "Ġauth": 2032,
      "Ġdirect": 2033,
      "cs": 2034,
      "erved": 2035,
      "Ġeye": 2036,
      "Ġterms": 2037,
      "ondon": 2038,
      "Ġitself": 2039,
      "Ġelse": 2040,
      "gra": 2041,
      "ush": 2042,
      "Ġoffic": 2043,
      "Ġmount": 2044,
      "ries": 2045,
      "Ġval": 2046,
      "Ġdem": 2047,
      "ĠWith": 2048,
      "Ġsit": 2049,
      "itting": 2050,
      "Ġnecess": 2051,
      "72": 2052,
      "ified": 2053,
      "AL": 2054,
      "Ġmaster": 2055,
      "uct": 2056,
      "Ġreally": 2057,
      "ĠSc": 2058,
      "Ġdest": 2059,
      "38": 2060,
      "Ġelectronic": 2061,
      "ĠNor": 2062,
      "ior": 2063,
      "Ġcast": 2064,
      "Ġview": 2065,
      "lled": 2066,
      "medi": 2067,
      "oundation": 2068,
      "Ġsight": 2069,
      "otion": 2070,
      "Ġnumber": 2071,
      "ĠBe": 2072,
      "Ġpossess": 2073,
      "Ġwhether": 2074,
      "ĠEnglish": 2075,
      "rel": 2076,
      "rench": 2077,
      "Ar": 2078,
      "ination": 2079,
      "Ġsort": 2080,
      "attle": 2081,
      "62": 2082,
      "bo": 2083,
      "Ġrespect": 2084,
      "gu": 2085,
      "Ġwomen": 2086,
      "asp": 2087,
      "78": 2088,
      "over": 2089,
      "Ġbit": 2090,
      "Ġfre": 2091,
      "cially": 2092,
      "Ġmed": 2093,
      "ift": 2094,
      "Ġroad": 2095,
      "Ġmaking": 2096,
      "vol": 2097,
      "Ġtruth": 2098,
      "cies": 2099,
      "Ġquestion": 2100,
      "agn": 2101,
      "Ġage": 2102,
      "Ġori": 2103,
      "Ġdistribut": 2104,
      "olog": 2105,
      "will": 2106,
      "Ġhur": 2107,
      "Ġpie": 2108,
      "Ġfive": 2109,
      "forms": 2110,
      "ront": 2111,
      "Ġele": 2112,
      "Ġmus": 2113,
      "Ġspirit": 2114,
      "ament": 2115,
      "inter": 2116,
      "?âĢĻ": 2117,
      "though": 2118,
      "Ġ$": 2119,
      "ina": 2120,
      "who": 2121,
      "Ġdream": 2122,
      "ingly": 2123,
      "Ġreceived": 2124,
      "ths": 2125,
      "Ġfav": 2126,
      "Ġhair": 2127,
      "69": 2128,
      "Ġbecame": 2129,
      "ils": 2130,
      "68": 2131,
      "Ġconsider": 2132,
      "Ġport": 2133,
      "airs": 2134,
      "...": 2135,
      "would": 2136,
      "'m": 2137,
      "isf": 2138,
      "cont": 2139,
      "Ġpurp": 2140,
      "Ġstri": 2141,
      ".'": 2142,
      "usband": 2143,
      "light": 2144,
      "iar": 2145,
      "ists": 2146,
      "Ġetc": 2147,
      "Ġtou": 2148,
      "Ġcreat": 2149,
      "Ġsense": 2150,
      "Ġbad": 2151,
      "Ġsuccess": 2152,
      "ots": 2153,
      "OU": 2154,
      "angu": 2155,
      "their": 2156,
      "Ġtable": 2157,
      "Of": 2158,
      "Ġwonder": 2159,
      "ours": 2160,
      "Ġbegin": 2161,
      "Ġver": 2162,
      "Ġune": 2163,
      "Ġstrange": 2164,
      "Ġrose": 2165,
      "Ġmain": 2166,
      "ĠNow": 2167,
      "off": 2168,
      "Ġkept": 2169,
      "Ġeffect": 2170,
      "ii": 2171,
      "aff": 2172,
      "Ġquick": 2173,
      "Ġdifferent": 2174,
      "Ġdu": 2175,
      "rupt": 2176,
      "vernment": 2177,
      "Ġdro": 2178,
      "Ġlab": 2179,
      "els": 2180,
      "owers": 2181,
      "Ġtowards": 2182,
      "ilt": 2183,
      "ĠDe": 2184,
      "52": 2185,
      "name": 2186,
      "anger": 2187,
      "Ġaround": 2188,
      "!âĢĻ": 2189,
      "lace": 2190,
      "Ġer": 2191,
      "58": 2192,
      "tained": 2193,
      "Ġhath": 2194,
      "iment": 2195,
      "Ġauthor": 2196,
      "Ġfig": 2197,
      "irm": 2198,
      "reg": 2199,
      "come": 2200,
      "ĠLondon": 2201,
      "Ġcold": 2202,
      "Ġsecret": 2203,
      "Ġstud": 2204,
      "Ġfine": 2205,
      "avy": 2206,
      "aves": 2207,
      "Ġbecome": 2208,
      "ĠFoundation": 2209,
      "gan": 2210,
      "pper": 2211,
      "59": 2212,
      "rance": 2213,
      "Ġask": 2214,
      "ics": 2215,
      "Ġevening": 2216,
      "Ġ8": 2217,
      "How": 2218,
      "utes": 2219,
      ");": 2220,
      "Ġwild": 2221,
      "Ġworth": 2222,
      "Ġparticular": 2223,
      "ĠBr": 2224,
      "Ġsleep": 2225,
      "Ġmur": 2226,
      "pecially": 2227,
      "Ġchief": 2228,
      "Ġwalk": 2229,
      "Ġinclud": 2230,
      "Ġsometimes": 2231,
      "Ġrate": 2232,
      "Ġexper": 2233,
      ">;": 2234,
      "ĠDo": 2235,
      "how": 2236,
      "arent": 2237,
      "ĠĠĠĠĠĠĠ": 2238,
      "Ġtherefore": 2239,
      "Ġship": 2240,
      "Ġnone": 2241,
      "ĠPar": 2242,
      "inary": 2243,
      "riage": 2244,
      "Ġstep": 2245,
      "Ġru": 2246,
      "rem": 2247,
      "Ġshow": 2248,
      "antly": 2249,
      "Ġcra": 2250,
      "ĠCon": 2251,
      "Ġimport": 2252,
      "efore": 2253,
      "ledge": 2254,
      "Ġanswer": 2255,
      "ĠBy": 2256,
      "Ġwrit": 2257,
      "Ġmine": 2258,
      "RE": 2259,
      "Ġorigin": 2260,
      "Ġremark": 2261,
      "Ġsold": 2262,
      "ĠSe": 2263,
      "cient": 2264,
      "itions": 2265,
      "Ġlad": 2266,
      "Ġline": 2267,
      "Ġprot": 2268,
      "'ve": 2269,
      "21": 2270,
      "look": 2271,
      "ters": 2272,
      "str": 2273,
      "Ġdraw": 2274,
      "AS": 2275,
      "tended": 2276,
      "tty": 2277,
      "Ġlim": 2278,
      "uous": 2279,
      "Ġappro": 2280,
      "Ġforce": 2281,
      "ues": 2282,
      "fra": 2283,
      "dom": 2284,
      "arr": 2285,
      "Ġsus": 2286,
      "Ġsto": 2287,
      "Ġsuper": 2288,
      "Ġsweet": 2289,
      "urs": 2290,
      "wordforms": 2291,
      "ror": 2292,
      "Ġmist": 2293,
      "cend": 2294,
      "ĠAd": 2295,
      "Ġfellow": 2296,
      "Ġidea": 2297,
      "Ġpop": 2298,
      "got": 2299,
      "Ġable": 2300,
      "Ġaccord": 2301,
      "comp": 2302,
      "Ġexam": 2303,
      "Shak": 2304,
      "Ġbig": 2305,
      "cks": 2306,
      "ayed": 2307,
      "iff": 2308,
      "sha": 2309,
      "Ġcomple": 2310,
      "At": 2311,
      "Ġduring": 2312,
      "Ġdet": 2313,
      "bert": 2314,
      "Ġarri": 2315,
      "Ġwon": 2316,
      "Ġglad": 2317,
      "chan": 2318,
      "Ġlord": 2319,
      "Ġmill": 2320,
      ",--": 2321,
      "ulation": 2322,
      "Ġacqu": 2323,
      "Ġoffice": 2324,
      "Ġcorn": 2325,
      "Ġder": 2326,
      "can": 2327,
      "Ġ<?/": 2328,
      "Why": 2329,
      "uro": 2330,
      "Ġanim": 2331,
      "Ġgen": 2332,
      "Ġund": 2333,
      "Ġev": 2334,
      "ĠStates": 2335,
      "inner": 2336,
      "Ġmere": 2337,
      "Ġdidn": 2338,
      "Ġden": 2339,
      "Ġhusband": 2340,
      "Bot": 2341,
      "Ġpriv": 2342,
      "Ġsaying": 2343,
      "stem": 2344,
      "ĠWill": 2345,
      "Ġkm": 2346,
      "Ġregard": 2347,
      "LE": 2348,
      "ref": 2349,
      "ĠĠĠĠĠĠĠĠĠĠĠĠĠĠĠĠĠĠĠĠĠĠĠĠ": 2350,
      "house": 2351,
      "Ġbreat": 2352,
      "ctor": 2353,
      "Ġpract": 2354,
      "Ġbound": 2355,
      "Ġdie": 2356,
      "Ġ9": 2357,
      "APTER": 2358,
      "Ġcross": 2359,
      "inct": 2360,
      "Not": 2361,
      "Ġ*": 2362,
      "ancy": 2363,
      "Ġgentleman": 2364,
      "Ġready": 2365,
      "ĠâĢĻ": 2366,
      "Ġprob": 2367,
      "Ġenem": 2368,
      "Ġfollowed": 2369,
      "Ġwatch": 2370,
      "some": 2371,
      "ital": 2372,
      "Ġformer": 2373,
      "Now": 2374,
      "Ġimag": 2375,
      "Ġself": 2376,
      "Ġdiffic": 2377,
      "aged": 2378,
      "Ġfra": 2379,
      "ĠUnited": 2380,
      "Ġvisit": 2381,
      "Ġsqu": 2382,
      "yond": 2383,
      "Ġlie": 2384,
      "Ġacross": 2385,
      "Ġsister": 2386,
      "Ġprinci": 2387,
      "ĠZ": 2388,
      "Ġappeared": 2389,
      "Ġquiet": 2390,
      "ĠEd": 2391,
      "&?;": 2392,
      "Ġsuddenly": 2393,
      "ĠPer": 2394,
      "sc": 2395,
      "ivid": 2396,
      "Ġbreak": 2397,
      "ator": 2398,
      "Ġfac": 2399,
      "Ġperfect": 2400,
      "Ġflo": 2401,
      "Ġord": 2402,
      "idge": 2403,
      "Ġmove": 2404,
      "ĠEngland": 2405,
      "Ġinfl": 2406,
      "Ġspoke": 2407,
      "Ġdom": 2408,
      "Ġda": 2409,
      "usion": 2410,
      "Ġhappy": 2411,
      "Ġpossible": 2412,
      "des": 2413,
      "Ġpost": 2414,
      "ĠCl": 2415,
      "ask": 2416,
      "face": 2417,
      "ening": 2418,
      "ship": 2419,
      "Ġpen": 2420,
      "Ġsurpr": 2421,
      "hem": 2422,
      "Ġdaughter": 2423,
      "ORD": 2424,
      "Ġ10": 2425,
      "Ġexcept": 2426,
      "Ġoccasion": 2427,
      "erve": 2428,
      "Ġslow": 2429,
      "ral": 2430,
      "when": 2431,
      "roy": 2432,
      "hys": 2433,
      "erman": 2434,
      "Ġstory": 2435,
      "ĠLe": 2436,
      "US": 2437,
      "Ġcourt": 2438,
      "ĠFrench": 2439,
      "Ġjoy": 2440,
      "Ġgrow": 2441,
      "then": 2442,
      "ĠNot": 2443,
      "Ġtwenty": 2444,
      "asure": 2445,
      "Ġchange": 2446,
      "_.": 2447,
      "Ġlate": 2448,
      "ett": 2449,
      "formation": 2450,
      "Ã©t": 2451,
      "Ġlonger": 2452,
      "ĠCar": 2453,
      "Ġwit": 2454,
      "iling": 2455,
      "ĠGe": 2456,
      "fer": 2457,
      "laimed": 2458,
      "With": 2459,
      "ls": 2460,
      "oose": 2461,
      "ushed": 2462,
      "gl": 2463,
      "Ġfaith": 2464,
      "Ġconcer": 2465,
      "soci": 2466,
      "Ġwindow": 2467,
      "Ġbright": 2468,
      "Ġimmedi": 2469,
      "Ġdanger": 2470,
      "One": 2471,
      "aul": 2472,
      "Ġsoft": 2473,
      "sequ": 2474,
      "Ġheaven": 2475,
      "Ġseems": 2476,
      "eness": 2477,
      "ĠBar": 2478,
      "Ġpal": 2479,
      "pping": 2480,
      "Ġsend": 2481,
      "resh": 2482,
      "Ġremember": 2483,
      "wo": 2484,
      "cell": 2485,
      "Ġtoward": 2486,
      "||": 2487,
      "Ġhist": 2488,
      "Ġje": 2489,
      "Ġmouth": 2490,
      "On": 2491,
      "part": 2492,
      "ixed": 2493,
      "Ġscar": 2494,
      "Ġfast": 2495,
      "Ġemb": 2496,
      "09": 2497,
      "Ġfront": 2498,
      "Ġagreement": 2499,
      "Ġpretty": 2500,
      "Ġchurch": 2501,
      "Ġpeace": 2502,
      "tr": 2503,
      "more": 2504,
      "ength": 2505,
      "ounded": 2506,
      "Ġprep": 2507,
      "Ġtreat": 2508,
      ",'": 2509,
      "Ġfollowing": 2510,
      "Ġemploy": 2511,
      "Ġmad": 2512,
      "Ġled": 2513,
      "Ġtaking": 2514,
      "ument": 2515,
      "comm": 2516,
      "cript": 2517,
      "Ġann": 2518,
      "ND": 2519,
      "isted": 2520,
      "appe": 2521,
      "urope": 2522,
      "Ġles": 2523,
      "Ġbeautiful": 2524,
      "org": 2525,
      "Ġservice": 2526,
      "itation": 2527,
      "kin": 2528,
      "Ġcarried": 2529,
      "Ġnatural": 2530,
      "Ġquar": 2531,
      "Ex": 2532,
      "ys": 2533,
      "ively": 2534,
      "Ġlaws": 2535,
      "RO": 2536,
      "Ġfut": 2537,
      "hard": 2538,
      "mo": 2539,
      "Ġespecially": 2540,
      "Ġfield": 2541,
      "Ġpurpose": 2542,
      "ume": 2543,
      "IL": 2544,
      "02": 2545,
      "IC": 2546,
      "ays": 2547,
      "ellow": 2548,
      "ustom": 2549,
      "joy": 2550,
      "altname": 2551,
      "Ġhat": 2552,
      "Ġenc": 2553,
      "vere": 2554,
      "Ġdesp": 2555,
      "iers": 2556,
      "Ġappl": 2557,
      "Ġcontinued": 2558,
      "ager": 2559,
      "Ġparty": 2560,
      "Ġstreng": 2561,
      "ler": 2562,
      "Ġaccept": 2563,
      "Ġhours": 2564,
      "Ġgod": 2565,
      "ĠMa": 2566,
      "note": 2567,
      "Ġevid": 2568,
      "ires": 2569,
      "iam": 2570,
      "Ġeverything": 2571,
      "Ġschool": 2572,
      "Ġsn": 2573,
      "Ġplain": 2574,
      "Ġbear": 2575,
      "ald": 2576,
      "inion": 2577,
      "icked": 2578,
      "Ġbeyond": 2579,
      "Ġaccom": 2580,
      "amed": 2581,
      "Ġfight": 2582,
      "Ġperm": 2583,
      "Ġwanted": 2584,
      "Ġsatisf": 2585,
      "rank": 2586,
      "Ġsens": 2587,
      "Ġcry": 2588,
      "Ġhill": 2589,
      "Ġpleasure": 2590,
      "hood": 2591,
      "ming": 2592,
      "Ġsuppose": 2593,
      "iod": 2594,
      "Ġcompl": 2595,
      "Ġbird": 2596,
      "ĠCha": 2597,
      "ically": 2598,
      "ested": 2599,
      "Book": 2600,
      "Ãı": 2601,
      "ision": 2602,
      "ounds": 2603,
      "wise": 2604,
      "ĠTom": 2605,
      "Ġviol": 2606,
      "work": 2607,
      "Ġearly": 2608,
      "Ġought": 2609,
      "adem": 2610,
      "Ġpaid": 2611,
      "Ġneither": 2612,
      "rough": 2613,
      "Ġliving": 2614,
      "Ġlaugh": 2615,
      "Ġty": 2616,
      "Ġsystem": 2617,
      "Ġcost": 2618,
      "after": 2619,
      "cho": 2620,
      "iles": 2621,
      "Ġresult": 2622,
      "Ġdut": 2623,
      "ases": 2624,
      "Ġrepe": 2625,
      "Ġdog": 2626,
      "Ġopened": 2627,
      "itary": 2628,
      "Ġriver": 2629,
      "ike": 2630,
      "08": 2631,
      "po": 2632,
      "Ġadded": 2633,
      "Ġsla": 2634,
      "umst": 2635,
      "Ġjo": 2636,
      "Ġbelow": 2637,
      "Ġgreen": 2638,
      "cal": 2639,
      "ext": 2640,
      "Ġforward": 2641,
      "Ġpaper": 2642,
      "Ġhot": 2643,
      "Ġ185": 2644,
      "Ġlaid": 2645,
      "Ġdeal": 2646,
      "ously": 2647,
      "Ġgri": 2648,
      "lt": 2649,
      "Ġpray": 2650,
      "ĠWh": 2651,
      "116": 2652,
      "Ġtree": 2653,
      "car": 2654,
      "ui": 2655,
      "ples": 2656,
      "Ġlater": 2657,
      "Ġdelight": 2658,
      "Ġpict": 2659,
      "fraid": 2660,
      "Ġfif": 2661,
      "ighb": 2662,
      "Ġlength": 2663,
      "Ġchair": 2664,
      "cr": 2665,
      "anced": 2666,
      "Ġinqu": 2667,
      "never": 2668,
      "Ġentered": 2669,
      "Ġgrand": 2670,
      "Ġsad": 2671,
      "ĠChar": 2672,
      "ĠAb": 2673,
      "Ġdoing": 2674,
      "ING": 2675,
      "ĠĠĠĠĠĠĠĠĠ": 2676,
      "ĠAfter": 2677,
      "Ġdeg": 2678,
      "ĠEurope": 2679,
      "iterary": 2680,
      "upon": 2681,
      "could": 2682,
      "Ġ15": 2683,
      "Ġwalked": 2684,
      "Ġsupport": 2685,
      "ED": 2686,
      "oured": 2687,
      "kn": 2688,
      "arden": 2689,
      "Ġobl": 2690,
      "Ġcomes": 2691,
      "Ġfurther": 2692,
      "Ġtop": 2693,
      "chi": 2694,
      "bur": 2695,
      "Ġdrink": 2696,
      "Ġbri": 2697,
      "ored": 2698,
      "ĠHar": 2699,
      "Un": 2700,
      "Ġspo": 2701,
      "Ġ17": 2702,
      "Ġslight": 2703,
      "100": 2704,
      "119": 2705,
      "ops": 2706,
      "obs": 2707,
      "Al": 2708,
      "ĠMay": 2709,
      "Ġwat": 2710,
      "Ġcompany": 2711,
      "ogn": 2712,
      "Ġblue": 2713,
      "ĠĠĠĠĠĠĠĠĠĠĠĠĠĠ": 2714,
      "bar": 2715,
      "ye": 2716,
      "orge": 2717,
      "Ġnearly": 2718,
      "Ġil": 2719,
      "--------": 2720,
      "Ġdeter": 2721,
      "been": 2722,
      "just": 2723,
      "113": 2724,
      "Ġwritten": 2725,
      "Ġconce": 2726,
      "hold": 2727,
      "af": 2728,
      "Ġcharge": 2729,
      "Ġrelig": 2730,
      "ork": 2731,
      "Ġcrow": 2732,
      "Ġyourself": 2733,
      "117": 2734,
      "ĠOr": 2735,
      "'re": 2736,
      "%,": 2737,
      "pri": 2738,
      "Ġph": 2739,
      "mn": 2740,
      "Ġsal": 2741,
      "Ġwrong": 2742,
      "Ġcoun": 2743,
      "Ġlangu": 2744,
      "Ġvill": 2745,
      "Ġreached": 2746,
      "Ġtried": 2747,
      "Ġfool": 2748,
      "Ġang": 2749,
      "Ġdress": 2750,
      "AM": 2751,
      "Ġplan": 2752,
      "ĠEx": 2753,
      "Ġfat": 2754,
      "Ġfeeling": 2755,
      "about": 2756,
      "118": 2757,
      "Ġstat": 2758,
      "115": 2759,
      "Gr": 2760,
      "road": 2761,
      "iding": 2762,
      "iant": 2763,
      "ivil": 2764,
      "ped": 2765,
      "unity": 2766,
      "your": 2767,
      "ĠPe": 2768,
      "again": 2769,
      "Ġ186": 2770,
      "Ġben": 2771,
      "ĠQu": 2772,
      "ises": 2773,
      "pid": 2774,
      "Ġfle": 2775,
      "aded": 2776,
      "ching": 2777,
      "lying": 2778,
      "iety": 2779,
      "112": 2780,
      "Ġiron": 2781,
      "gar": 2782,
      "All": 2783,
      "Ġcre": 2784,
      "Ġconv": 2785,
      "Ġdied": 2786,
      "Ġcomfort": 2787,
      "Ġproceed": 2788,
      "Ġremain": 2789,
      "eb": 2790,
      "cience": 2791,
      "Ġmakes": 2792,
      "ĠGerman": 2793,
      "irty": 2794,
      "ciety": 2795,
      "icense": 2796,
      "Ġagree": 2797,
      "Ġentire": 2798,
      "Ġdinner": 2799,
      "Ġhop": 2800,
      "ossible": 2801,
      "return": 2802,
      "ĠEm": 2803,
      "ĠAm": 2804,
      "Ġclass": 2805,
      "rible": 2806,
      "Ġlips": 2807,
      "time": 2808,
      "Do": 2809,
      "velop": 2810,
      "Ġeat": 2811,
      "ĠLORD": 2812,
      "unic": 2813,
      "Ġstay": 2814,
      "orses": 2815,
      "cil": 2816,
      "Ġoccup": 2817,
      "Ġsilence": 2818,
      "jo": 2819,
      "Ġdemand": 2820,
      "Cha": 2821,
      "Â¶": 2822,
      "CHAPTER": 2823,
      "Ġparts": 2824,
      "114": 2825,
      "Ġbuild": 2826,
      "Ġnon": 2827,
      "Ġshar": 2828,
      "nce": 2829,
      "count": 2830,
      "Ġstone": 2831,
      "Ġjour": 2832,
      "Ġtrees": 2833,
      "ĠAmerican": 2834,
      "lling": 2835,
      "acy": 2836,
      "Ġprison": 2837,
      "ites": 2838,
      "Ġbott": 2839,
      "ech": 2840,
      "into": 2841,
      "ruct": 2842,
      "Ġrepresent": 2843,
      "hel": 2844,
      "Ġdesire": 2845,
      "Ġintell": 2846,
      "Ġ&?;": 2847,
      "Ġresol": 2848,
      "irth": 2849,
      "Ġsett": 2850,
      "ourage": 2851,
      "oe": 2852,
      "bes": 2853,
      "Ġstrength": 2854,
      "Ġdam": 2855,
      "ividual": 2856,
      "CT": 2857,
      "Gutenberg": 2858,
      "Ġlived": 2859,
      "ĠLady": 2860,
      "Is": 2861,
      "yl": 2862,
      "ĠArch": 2863,
      "Ġeight": 2864,
      "essed": 2865,
      "oup": 2866,
      "Ġknowledge": 2867,
      "ĠRo": 2868,
      "Ġrich": 2869,
      "ners": 2870,
      "Ġ20": 2871,
      "adv": 2872,
      "Ġ184": 2873,
      "Ġafraid": 2874,
      "Ġburn": 2875,
      "ette": 2876,
      "Ġmor": 2877,
      "iction": 2878,
      "Ġglass": 2879,
      "cher": 2880,
      "bled": 2881,
      "Ġdepart": 2882,
      "ĠPhil": 2883,
      "Ġwhis": 2884,
      "Ġconvers": 2885,
      "Ġbill": 2886,
      "ere": 2887,
      "Ġassoci": 2888,
      "osp": 2889,
      "sembl": 2890,
      "ips": 2891,
      "Ġtry": 2892,
      "long": 2893,
      "alled": 2894,
      "Ġsmile": 2895,
      "duced": 2896,
      "Ġtrust": 2897,
      "arrow": 2898,
      "Ġfood": 2899,
      "Ġhy": 2900,
      "see": 2901,
      "Ġshad": 2902,
      "ĠDon": 2903,
      "Ġyouth": 2904,
      "Ġx": 2905,
      "uf": 2906,
      "Ġmach": 2907,
      "tic": 2908,
      "rand": 2909,
      "ns": 2910,
      "Ġtot": 2911,
      "ivers": 2912,
      "ille": 2913,
      "Ġves": 2914,
      "rid": 2915,
      "Ġheavy": 2916,
      "por": 2917,
      "Ġbran": 2918,
      "ories": 2919,
      "Ġyes": 2920,
      "sm": 2921,
      "Ġattempt": 2922,
      "Ġvb": 2923,
      "arm": 2924,
      "Ġchance": 2925,
      "formed": 2926,
      "Ġvirt": 2927,
      "Ġposition": 2928,
      "Ġtrouble": 2929,
      "Ġ(&?;": 2930,
      "Ġnote": 2931,
      "Ġdrew": 2932,
      "Ġvict": 2933,
      "Ġsword": 2934,
      "ference": 2935,
      "ishing": 2936,
      "Ġspecies": 2937,
      "Ġhappened": 2938,
      "His": 2939,
      "said": 2940,
      "Ġplaced": 2941,
      "ĠCol": 2942,
      "ests": 2943,
      "Ġenjoy": 2944,
      "ĠGree": 2945,
      "Ġstran": 2946,
      "add": 2947,
      "Ġago": 2948,
      "Ġcopyright": 2949,
      "Ġcompan": 2950,
      "agraph": 2951,
      "Ġconn": 2952,
      "Ġcontr": 2953,
      "Ġaction": 2954,
      "conom": 2955,
      "Ġsave": 2956,
      "Ġarmy": 2957,
      "Ġclot": 2958,
      "Ġtro": 2959,
      "Ġincre": 2960,
      "ĠFl": 2961,
      "Be": 2962,
      "cur": 2963,
      "Ġdim": 2964,
      "Ġmem": 2965,
      "certain": 2966,
      "Ġnecessary": 2967,
      "kes": 2968,
      "eneral": 2969,
      "ency": 2970,
      "pond": 2971,
      "ĠDr": 2972,
      "bel": 2973,
      "ai": 2974,
      "Ġvarious": 2975,
      "law": 2976,
      "Ġbelong": 2977,
      "zz": 2978,
      "ĠFrom": 2979,
      "cap": 2980,
      "Ġfing": 2981,
      "ify": 2982,
      "Ġfuture": 2983,
      "oses": 2984,
      "bet": 2985,
      "ram": 2986,
      "Ġpiece": 2987,
      "Ġstraight": 2988,
      "UT": 2989,
      "ĠGo": 2990,
      "ĠPo": 2991,
      "Ġhig": 2992,
      "ĠeBook": 2993,
      "Ġwide": 2994,
      "âĢĵ": 2995,
      "ĠSw": 2996,
      "Ġdistance": 2997,
      "Ġperiod": 2998,
      "Ġweak": 2999,
      "pass": 3000,
      "EL": 3001,
      "Ġminutes": 3002,
      "Ġ16": 3003,
      "Ġbooks": 3004,
      "Ġanx": 3005,
      "Ġcru": 3006,
      "lands": 3007,
      "Ġeasy": 3008,
      "Ġbroken": 3009,
      "ĠThese": 3010,
      "isting": 3011,
      "Ġvessel": 3012,
      "Ġcrowd": 3013,
      "bre": 3014,
      "aled": 3015,
      "Ġgall": 3016,
      "Ġsubst": 3017,
      "reme": 3018,
      "Ġmention": 3019,
      "Ġcircumst": 3020,
      "Ġsugg": 3021,
      "cked": 3022,
      "Ġsingle": 3023,
      "Ġgovernment": 3024,
      "Re": 3025,
      "ghed": 3026,
      "cover": 3027,
      "should": 3028,
      "Ġsole": 3029,
      "spe": 3030,
      "Ġbattle": 3031,
      "Ġimm": 3032,
      "110": 3033,
      "ession": 3034,
      "Ġneighb": 3035,
      "Ġevent": 3036,
      "Ġscarce": 3037,
      "Sp": 3038,
      "ĠMan": 3039,
      "Ġast": 3040,
      "Ġconduct": 3041,
      "Ġattention": 3042,
      "ration": 3043,
      "Sir": 3044,
      "Wh": 3045,
      "idence": 3046,
      "Ġprocess": 3047,
      "tre": 3048,
      "before": 3049,
      "eks": 3050,
      "has": 3051,
      "cape": 3052,
      "Ġfit": 3053,
      "Ġthoughts": 3054,
      "pic": 3055,
      "ĠBrit": 3056,
      "Ġthinking": 3057,
      "mar": 3058,
      "Ġopinion": 3059,
      "Ġ187": 3060,
      "Ġmiles": 3061,
      "Ġball": 3062,
      "aching": 3063,
      "imate": 3064,
      "Ġsand": 3065,
      "ĠWhy": 3066,
      "happ": 3067,
      "stood": 3068,
      "Ġgrat": 3069,
      "ĠRe": 3070,
      "Ġevil": 3071,
      "iance": 3072,
      "peror": 3073,
      "athe": 3074,
      "Ġwis": 3075,
      "osing": 3076,
      "Ġweek": 3077,
      "ean": 3078,
      "ilton": 3079,
      ".;": 3080,
      "ĠLet": 3081,
      "Ġtears": 3082,
      "Ġstruck": 3083,
      "Ġglo": 3084,
      "ourse": 3085,
      "ences": 3086,
      "Ġfigure": 3087,
      "erc": 3088,
      "Ġinflu": 3089,
      "Ġknows": 3090,
      "sec": 3091,
      "Ġpi": 3092,
      "Cf": 3093,
      "ethod": 3094,
      "Ġbeauty": 3095,
      "great": 3096,
      "Ġstreet": 3097,
      "lan": 3098,
      "AD": 3099,
      "Ġmort": 3100,
      "inal": 3101,
      "mit": 3102,
      "rect": 3103,
      "Ġsharp": 3104,
      "Ġcomplete": 3105,
      "Ġborn": 3106,
      "Ġexact": 3107,
      "Ġcertainly": 3108,
      "Ġ183": 3109,
      "than": 3110,
      "Ġdesign": 3111,
      "Ġhorses": 3112,
      "Ġfru": 3113,
      "SE": 3114,
      "Ġbell": 3115,
      "little": 3116,
      "ĠRoman": 3117,
      "Ġgreater": 3118,
      "Ġnoble": 3119,
      "Ġthick": 3120,
      "ti": 3121,
      "teen": 3122,
      "Ġlatter": 3123,
      "ĠWest": 3124,
      "Ġphys": 3125,
      "Ġremained": 3126,
      "Ġwarm": 3127,
      "Ġstopped": 3128,
      "Ġstanding": 3129,
      "ĠHere": 3130,
      "hor": 3131,
      "ĠSome": 3132,
      "illy": 3133,
      "Ġparagraph": 3134,
      "ĠFrance": 3135,
      "rs": 3136,
      "Ġkiss": 3137,
      "eneath": 3138,
      "iced": 3139,
      "ais": 3140,
      "Ġfilled": 3141,
      "Ġpersons": 3142,
      "ander": 3143,
      "Ġloved": 3144,
      "ĠItal": 3145,
      "Ġhost": 3146,
      "ales": 3147,
      "orted": 3148,
      "Â«": 3149,
      "Ġexclaimed": 3150,
      "Ġcondition": 3151,
      "Ġcou": 3152,
      "Ġmeant": 3153,
      "Ġsepar": 3154,
      "Ġthird": 3155,
      "By": 3156,
      "enn": 3157,
      "Ġfun": 3158,
      "ouses": 3159,
      "Ġgrave": 3160,
      "Ġz": 3161,
      ".--_": 3162,
      "iver": 3163,
      "Ġpun": 3164,
      "Ġbreath": 3165,
      "umed": 3166,
      "lex": 3167,
      "Ġban": 3168,
      "Ġdread": 3169,
      "bers": 3170,
      "ĠWell": 3171,
      "Ġwrite": 3172,
      "Ġhistory": 3173,
      "Ġpull": 3174,
      "Ãª": 3175,
      "De": 3176,
      "ris": 3177,
      "itical": 3178,
      "Ġcarry": 3179,
      "reet": 3180,
      "ox": 3181,
      ",âĢĶ": 3182,
      "Ġusually": 3183,
      "Ġimmediately": 3184,
      "elle": 3185,
      "Ġfal": 3186,
      "Ġid": 3187,
      "Ġseeing": 3188,
      "osop": 3189,
      "Ġlaughed": 3190,
      "oes": 3191,
      "wood": 3192,
      "Ġknight": 3193,
      "Ġprev": 3194,
      "____": 3195,
      "Ġpresence": 3196,
      "Ġplant": 3197,
      "ability": 3198,
      "odd": 3199,
      "esty": 3200,
      "mes": 3201,
      "Ġappearance": 3202,
      "icate": 3203,
      "Ġprovid": 3204,
      "ruction": 3205,
      "Ġancient": 3206,
      "ĠĠĠĠĠĠĠĠĠĠĠĠĠĠĠĠĠĠĠĠĠĠĠĠĠĠĠĠĠĠĠĠ": 3207,
      "sy": 3208,
      "ibly": 3209,
      "Ġfee": 3210,
      "Ġenemy": 3211,
      "Ġmag": 3212,
      "Ġmarried": 3213,
      "itution": 3214,
      "erous": 3215,
      "noon": 3216,
      "unk": 3217,
      "Ġboat": 3218,
      "ceived": 3219,
      "Ġ12": 3220,
      "Ġign": 3221,
      "aterial": 3222,
      "lin": 3223,
      "eds": 3224,
      "Ġmass": 3225,
      "Ġmaid": 3226,
      "Ġindividual": 3227,
      "lief": 3228,
      "Ġbroad": 3229,
      "From": 3230,
      "Ġforest": 3231,
      "LI": 3232,
      "ĠCaptain": 3233,
      "uge": 3234,
      "ointed": 3235,
      "Ġfloor": 3236,
      "Ġincluding": 3237,
      "action": 3238,
      "line": 3239,
      "Ġpet": 3240,
      "amb": 3241,
      "Ġpress": 3242,
      "ĠOh": 3243,
      "place": 3244,
      "oon": 3245,
      "Con": 3246,
      "Ġsin": 3247,
      "Ġplease": 3248,
      "Ġcloud": 3249,
      "ilar": 3250,
      "idered": 3251,
      "Ġsick": 3252,
      "pers": 3253,
      "Ġpour": 3254,
      "Ġbeginning": 3255,
      "Ġcaught": 3256,
      "known": 3257,
      "Ġspring": 3258,
      "Ġmonths": 3259,
      "Ġdecla": 3260,
      "aying": 3261,
      "Ġaccording": 3262,
      "Ġpra": 3263,
      "Ġsitting": 3264,
      "Ġslowly": 3265,
      "Ġgrew": 3266,
      "Ġexpress": 3267,
      "worth": 3268,
      "ĠMad": 3269,
      "Ġoutside": 3270,
      "don": 3271,
      "itch": 3272,
      "together": 3273,
      "Ġimportant": 3274,
      "Ġmoved": 3275,
      "Ġoccur": 3276,
      "Ġaccess": 3277,
      "uation": 3278,
      "Ġnews": 3279,
      "ĠTH": 3280,
      "gress": 3281,
      "Ġoper": 3282,
      "Ġdescri": 3283,
      "Ġguard": 3284,
      "Ġletters": 3285,
      "Ġwriting": 3286,
      "ora": 3287,
      "uted": 3288,
      "Ġtone": 3289,
      "Ġforgot": 3290,
      "Ġkne": 3291,
      "Ġfresh": 3292,
      "Ġprobably": 3293,
      "Ġgaz": 3294,
      "Ġduty": 3295,
      "Ġbeside": 3296,
      "Ġeasily": 3297,
      "Ġ(<": 3298,
      "Ġgetting": 3299,
      "ww": 3300,
      "Ġsafe": 3301,
      "ograph": 3302,
      "ĠGu": 3303,
      "every": 3304,
      "gment": 3305,
      "Ã¶": 3306,
      "Ġpassion": 3307,
      "Ġmot": 3308,
      "ĠChristian": 3309,
      "Ġhung": 3310,
      "Ġdispl": 3311,
      "Ġcomb": 3312,
      "zen": 3313,
      "Ġfem": 3314,
      "Ġfurn": 3315,
      "Ġhonour": 3316,
      "clud": 3317,
      "Ġestab": 3318,
      "Ġhang": 3319,
      "olly": 3320,
      "bered": 3321,
      "Ġenter": 3322,
      "istance": 3323,
      "cceed": 3324,
      "Ġliber": 3325,
      "Ġminute": 3326,
      "fast": 3327,
      "Ġsi": 3328,
      "kind": 3329,
      "Ġhardly": 3330,
      "ashion": 3331,
      "Ġsor": 3332,
      "back": 3333,
      "Ġraised": 3334,
      "Ġafterwards": 3335,
      "Ġsong": 3336,
      "Â»": 3337,
      "OT": 3338,
      "Ġinstead": 3339,
      "Ġmoon": 3340,
      "Ġ(&?;),": 3341,
      "Ġfro": 3342,
      "Ġcivil": 3343,
      "Ch": 3344,
      "Ġ`": 3345,
      "Ġbox": 3346,
      "Ġprevent": 3347,
      "ourt": 3348,
      "Ġsilent": 3349,
      "Ġmess": 3350,
      "dd": 3351,
      "Ġaddress": 3352,
      "Ġtast": 3353,
      "Ġdonations": 3354,
      "heart": 3355,
      "itable": 3356,
      "Ġsimple": 3357,
      "Ġshut": 3358,
      "ented": 3359,
      "ĠAf": 3360,
      ">[<": 3361,
      "uke": 3362,
      "Ġfla": 3363,
      "Ġnotice": 3364,
      "leg": 3365,
      "Ġneck": 3366,
      "Ġgarden": 3367,
      "ov": 3368,
      "Ġshowed": 3369,
      "dered": 3370,
      "aries": 3371,
      "Ġusual": 3372,
      "Ġdeterm": 3373,
      "ulty": 3374,
      "ENT": 3375,
      "ĠHen": 3376,
      "retched": 3377,
      "Ġmusic": 3378,
      "Ġtotal": 3379,
      "Ġsilver": 3380,
      "raw": 3381,
      "Ãł": 3382,
      "Ġfortune": 3383,
      "oid": 3384,
      "Ġpas": 3385,
      "know": 3386,
      "olute": 3387,
      "bing": 3388,
      "even": 3389,
      "Ġroy": 3390,
      "ification": 3391,
      ">(#": 3392,
      "chant": 3393,
      "Ġband": 3394,
      "Ġobserved": 3395,
      "Ġturning": 3396,
      "Ah": 3397,
      "ishment": 3398,
      "Ġ25": 3399,
      "Ġcab": 3400,
      "Ġlanguage": 3401,
      "Ġcorner": 3402,
      ">(#)</": 3403,
      "Ġexist": 3404,
      "Ġdifficult": 3405,
      "ĠDan": 3406,
      "gel": 3407,
      "Ġoblig": 3408,
      "nat": 3409,
      "Ġmut": 3410,
      "Ġrapid": 3411,
      "Ġhall": 3412,
      "Ġrock": 3413,
      "Ġpoet": 3414,
      "Ġsociety": 3415,
      "Ġvan": 3416,
      "Ġformed": 3417,
      "hern": 3418,
      "Ġaut": 3419,
      "Ġmiddle": 3420,
      "Ġutter": 3421,
      "ĠRome": 3422,
      "Ġ27": 3423,
      "Ġfamil": 3424,
      "ĠWhere": 3425,
      "eful": 3426,
      "Ġbow": 3427,
      "cre": 3428,
      "Ġcamp": 3429,
      "Ġforget": 3430,
      "Ġexpression": 3431,
      "vert": 3432,
      "lend": 3433,
      "while": 3434,
      "morrow": 3435,
      "Ġstarted": 3436,
      "Ġmillion": 3437,
      "bles": 3438,
      "Com": 3439,
      "ĠLa": 3440,
      "Ġtax": 3441,
      "ford": 3442,
      "pter": 3443,
      "through": 3444,
      "Ġproduced": 3445,
      "jor": 3446,
      "ĠLiterary": 3447,
      "Ġrace": 3448,
      "Ġboard": 3449,
      "Ġtemper": 3450,
      "ĠAug": 3451,
      "Ġpath": 3452,
      "Ġfright": 3453,
      "Ġgiving": 3454,
      "Ġdirection": 3455,
      "only": 3456,
      "ĠGeorge": 3457,
      "down": 3458,
      "Ġseven": 3459,
      "Ġfirm": 3460,
      "oted": 3461,
      "Ġ30": 3462,
      "Ġvain": 3463,
      "icient": 3464,
      "Ġinstant": 3465,
      "Ġrecogn": 3466,
      "Her": 3467,
      "Ġleaves": 3468,
      "bec": 3469,
      "ĠIN": 3470,
      "rep": 3471,
      "ae": 3472,
      "Ġpursu": 3473,
      "eral": 3474,
      "Ġextra": 3475,
      "Ġsky": 3476,
      "Ġequal": 3477,
      "ĠArchive": 3478,
      "Ġlower": 3479,
      "cket": 3480,
      "Ġshore": 3481,
      "itive": 3482,
      "ĠCan": 3483,
      "Ġwise": 3484,
      "Ġprivate": 3485,
      "omething": 3486,
      "OL": 3487,
      "Ġfixed": 3488,
      "Ġboys": 3489,
      "Ġlif": 3490,
      "antage": 3491,
      "ĠYet": 3492,
      "Ġlearned": 3493,
      "ĠMon": 3494,
      "Ġclaim": 3495,
      "Ġhence": 3496,
      "ĠYork": 3497,
      "Let": 3498,
      "Ġfrequ": 3499,
      "ague": 3500,
      "nal": 3501,
      "Ġtender": 3502,
      "Ġplaces": 3503,
      "OE": 3504,
      "Ġyellow": 3505,
      "eed": 3506,
      "inite": 3507,
      "gen": 3508,
      "Ġshout": 3509,
      "Ġur": 3510,
      "pal": 3511,
      "culiar": 3512,
      "Ġquality": 3513,
      "ĠAnt": 3514,
      "uly": 3515,
      "ĠParis": 3516,
      "Ġhun": 3517,
      "Ġcovered": 3518,
      "Ġdepend": 3519,
      "pon": 3520,
      "bey": 3521,
      ".),": 3522,
      "ĠQue": 3523,
      "ste": 3524,
      "Ġwine": 3525,
      "Ġquickly": 3526,
      "Ġremo": 3527,
      "Ġpertaining": 3528,
      "arer": 3529,
      "ingu": 3530,
      "uses": 3531,
      "Ġdestroy": 3532,
      "pected": 3533,
      "ĠPrince": 3534,
      "Ġspeech": 3535,
      "ĠSouth": 3536,
      "Ġbroke": 3537,
      "Ġbeneath": 3538,
      "vi": 3539,
      "Ġ14": 3540,
      "Ġeduc": 3541,
      "hal": 3542,
      "Ġstream": 3543,
      "ĠWho": 3544,
      "ustri": 3545,
      "uls": 3546,
      "Ġjourney": 3547,
      "ades": 3548,
      "Ġattend": 3549,
      "Ind": 3550,
      "Ġ24": 3551,
      "sur": 3552,
      "Per": 3553,
      "Ġphil": 3554,
      "Ġdevelop": 3555,
      "Ġhabit": 3556,
      "Ġwrote": 3557,
      "ucer": 3558,
      "Ġrain": 3559,
      "Project": 3560,
      "Ġbank": 3561,
      "Ġtalking": 3562,
      "Ġsorrow": 3563,
      "Ġgrass": 3564,
      "clock": 3565,
      "hall": 3566,
      "himself": 3567,
      "Ġpale": 3568,
      "III": 3569,
      "Ġcolor": 3570,
      "Ġgun": 3571,
      "Ġnarrow": 3572,
      "Ġ23": 3573,
      "Ġhealth": 3574,
      "ademark": 3575,
      "Ġmagn": 3576,
      "antic": 3577,
      "Ġconsequ": 3578,
      "apers": 3579,
      "ables": 3580,
      "Ġlot": 3581,
      "Ġlives": 3582,
      "ĠNA": 3583,
      "quest": 3584,
      "stant": 3585,
      "Ġmaterial": 3586,
      "Ġfer": 3587,
      "Ġwhatever": 3588,
      "Ġstar": 3589,
      "tra": 3590,
      "ails": 3591,
      "Ġ13": 3592,
      "vey": 3593,
      "ata": 3594,
      "Ġgrace": 3595,
      "set": 3596,
      "arily": 3597,
      "Ġfish": 3598,
      "Ġintro": 3599,
      ".âĢĶ": 3600,
      "pet": 3601,
      "Ġsurface": 3602,
      "Ġmotion": 3603,
      "Ġflowers": 3604,
      "reen": 3605,
      "Where": 3606,
      "osite": 3607,
      "ANT": 3608,
      "Ġsucceed": 3609,
      "Ġsmo": 3610,
      "200": 3611,
      "yr": 3612,
      "Ġkill": 3613,
      "Ġpassage": 3614,
      "pered": 3615,
      "Ġattack": 3616,
      "thought": 3617,
      "alley": 3618,
      "Ġspot": 3619,
      "ĠAg": 3620,
      "chief": 3621,
      "Ġrid": 3622,
      "ole": 3623,
      "Ġweight": 3624,
      "Ġalthough": 3625,
      "Ã¦": 3626,
      "asts": 3627,
      "Ġbeat": 3628,
      "nest": 3629,
      "good": 3630,
      "Ġimpossible": 3631,
      "Ġwaiting": 3632,
      "habit": 3633,
      "\"</": 3634,
      "Ġcapt": 3635,
      "onel": 3636,
      "Ġproperty": 3637,
      "<?/": 3638,
      "Ġcho": 3639,
      "Ġprint": 3640,
      "Ġwalls": 3641,
      "erable": 3642,
      "essor": 3643,
      "eping": 3644,
      "umb": 3645,
      "Ġremem": 3646,
      "ray": 3647,
      "Ġspeaking": 3648,
      "ule": 3649,
      "Ġloss": 3650,
      "Ġsomewhat": 3651,
      "Ġrepeated": 3652,
      "might": 3653,
      "Ġtong": 3654,
      "nes": 3655,
      "XX": 3656,
      "Ġdue": 3657,
      "Ġsli": 3658,
      "Ġstop": 3659,
      "ĠMary": 3660,
      "Ġadmir": 3661,
      "Ġmarriage": 3662,
      "Ġorgan": 3663,
      "Ġcustom": 3664,
      "Ġsav": 3665,
      "father": 3666,
      "Ġtit": 3667,
      "Ġtu": 3668,
      "Ġsupposed": 3669,
      "tion": 3670,
      "Ġperform": 3671,
      "ĠCH": 3672,
      "race": 3673,
      "Ġafternoon": 3674,
      "Ġstro": 3675,
      "Ġmiss": 3676,
      "OM": 3677,
      "ĠTr": 3678,
      "Ġpros": 3679,
      "Ġhonor": 3680,
      "Ġspeed": 3681,
      "ĠSam": 3682,
      "Ġdeli": 3683,
      "THE": 3684,
      "such": 3685,
      "CE": 3686,
      "Ġpleasant": 3687,
      "occ": 3688,
      "Ġmighty": 3689,
      "lar": 3690,
      "Ġmerely": 3691,
      "Ġimpro": 3692,
      "did": 3693,
      "Ġeager": 3694,
      "Here": 3695,
      "Ġring": 3696,
      "Ġpleased": 3697,
      "Ġexpected": 3698,
      "pel": 3699,
      "Ġexcell": 3700,
      "Who": 3701,
      "ĠAS": 3702,
      "Po": 3703,
      "Ġcover": 3704,
      "Ġladies": 3705,
      "Ġgro": 3706,
      "imply": 3707,
      "ta": 3708,
      "field": 3709,
      "After": 3710,
      "Ġdans": 3711,
      "atus": 3712,
      "Ġears": 3713,
      "Ġloc": 3714,
      "Ġopport": 3715,
      "Don": 3716,
      "TR": 3717,
      "Ġspec": 3718,
      "Ġrevol": 3719,
      "Ġsteps": 3720,
      "Ġcred": 3721,
      "[=": 3722,
      "Ġgar": 3723,
      "Ġinfluence": 3724,
      "ibility": 3725,
      "acher": 3726,
      "Ġcat": 3727,
      "Ġlearn": 3728,
      "Ġspread": 3729,
      "ann": 3730,
      "Ġinstr": 3731,
      "Ġpure": 3732,
      "Ġuncle": 3733,
      "Ġcouldn": 3734,
      "Ġdiscovered": 3735,
      "Ġlabor": 3736,
      "Ġtouch": 3737,
      "Ġsnow": 3738,
      "Ġgenerally": 3739,
      "Ġpopulation": 3740,
      "ĠPeter": 3741,
      "IV": 3742,
      "ois": 3743,
      "Ġapart": 3744,
      "Ġconversation": 3745,
      "isions": 3746,
      "aked": 3747,
      "Ġsail": 3748,
      "Ġsummer": 3749,
      "Ġcand": 3750,
      "Ġdistingu": 3751,
      "Ġescape": 3752,
      "Ġmethod": 3753,
      "Ġfier": 3754,
      "made": 3755,
      "isc": 3756,
      "emed": 3757,
      "itor": 3758,
      "ĠCf": 3759,
      "Ġgoes": 3760,
      "Ġfalse": 3761,
      "Ġdegree": 3762,
      "ios": 3763,
      "elve": 3764,
      "anted": 3765,
      "Ġess": 3766,
      "ceive": 3767,
      "Ġreceive": 3768,
      "Ġarrived": 3769,
      "Ġproduct": 3770,
      "Ġlines": 3771,
      "cean": 3772,
      "Ġvent": 3773,
      "ĠÃ©t": 3774,
      "orough": 3775,
      "Ġdry": 3776,
      "Ġbitter": 3777,
      "Ġproud": 3778,
      "Ġwouldn": 3779,
      "rate": 3780,
      "cor": 3781,
      "ION": 3782,
      "Ġspace": 3783,
      "Ġsearch": 3784,
      "Mrs": 3785,
      "Ġdescend": 3786,
      "Ġblind": 3787,
      "Ġrunning": 3788,
      "ias": 3789,
      "Ġlean": 3790,
      "ĠAfric": 3791,
      "ival": 3792,
      "Ġchanged": 3793,
      "Ġsake": 3794,
      "Ġgirls": 3795,
      "Ġcaptain": 3796,
      "TH": 3797,
      "view": 3798,
      "Ġloud": 3799,
      "ĠAmerica": 3800,
      "ĠWas": 3801,
      "bly": 3802,
      "Ġtall": 3803,
      "--\"": 3804,
      "Ġvous": 3805,
      "En": 3806,
      "Ġinformation": 3807,
      "Ġscarcely": 3808,
      "Ġwished": 3809,
      "Ġpassing": 3810,
      "Ġextreme": 3811,
      "Ġcheer": 3812,
      "Ġgate": 3813,
      "Ã©s": 3814,
      "sub": 3815,
      "Ġallow": 3816,
      "Ġfol": 3817,
      "ĠRic": 3818,
      "***": 3819,
      "ids": 3820,
      "Ġreach": 3821,
      "Ġclosed": 3822,
      "bon": 3823,
      "ĠNorth": 3824,
      "Ġpeculiar": 3825,
      "ique": 3826,
      "Ġbread": 3827,
      "fortun": 3828,
      "may": 3829,
      "Ġneg": 3830,
      "250": 3831,
      "Ġdrawn": 3832,
      "Ã©e": 3833,
      "Ġinj": 3834,
      "pes": 3835,
      "Ġprovide": 3836,
      "much": 3837,
      "Ġshook": 3838,
      "stone": 3839,
      "Ġentirely": 3840,
      "Ġexperience": 3841,
      "Ġwinter": 3842,
      "Ġprince": 3843,
      "mbers": 3844,
      "ĠIndian": 3845,
      "rab": 3846,
      "Ġreve": 3847,
      "Ġexec": 3848,
      "without": 3849,
      "Ġcro": 3850,
      "Ġconsidered": 3851,
      "give": 3852,
      "Ġseat": 3853,
      "rict": 3854,
      "ĠComm": 3855,
      "Ġthirty": 3856,
      "Ġphilosop": 3857,
      "Ġheat": 3858,
      "icul": 3859,
      "ieur": 3860,
      "120": 3861,
      "AG": 3862,
      "Ġnorth": 3863,
      "IR": 3864,
      "130": 3865,
      "Ġappre": 3866,
      "Ġhero": 3867,
      "Ġleaving": 3868,
      "dist": 3869,
      "Ġanyone": 3870,
      "low": 3871,
      "Ġbod": 3872,
      "Ġbold": 3873,
      "Ġcircumstances": 3874,
      "Ġarg": 3875,
      "Ġassociated": 3876,
      "Ġhappiness": 3877,
      "Ġwel": 3878,
      "rie": 3879,
      "ology": 3880,
      "Ġwid": 3881,
      "Ġcler": 3882,
      "Ġbirth": 3883,
      "Ġmilitary": 3884,
      "Ġfavor": 3885,
      "oyal": 3886,
      "Ġfruit": 3887,
      "ik": 3888,
      "ding": 3889,
      "Ġworse": 3890,
      "Ġtrying": 3891,
      "rant": 3892,
      "ipp": 3893,
      "Ġtor": 3894,
      "iny": 3895,
      "Ġpu": 3896,
      "Qu": 3897,
      "Ġlooks": 3898,
      "ĠThus": 3899,
      "Ġau": 3900,
      "005": 3901,
      "190": 3902,
      "rose": 3903,
      "Ġpicture": 3904,
      "Ġapplied": 3905,
      "150": 3906,
      "Ġsorry": 3907,
      "pan": 3908,
      "Ġoffer": 3909,
      "ĠMor": 3910,
      "urd": 3911,
      "Mar": 3912,
      "vention": 3913,
      "180": 3914,
      "Ġbreast": 3915,
      "Ġ11": 3916,
      "Ġgame": 3917,
      "ica": 3918,
      "lly": 3919,
      "Ġservant": 3920,
      "Ġtend": 3921,
      "two": 3922,
      "Ġsurprise": 3923,
      "Ġ26": 3924,
      "Ġrul": 3925,
      "003": 3926,
      "Ġmat": 3927,
      "ĠĠĊ": 3928,
      "lected": 3929,
      "Ġaffection": 3930,
      "Ġbecom": 3931,
      "lor": 3932,
      "ieve": 3933,
      "ancing": 3934,
      "cel": 3935,
      "spir": 3936,
      "ky": 3937,
      "Ġlying": 3938,
      "Ġshot": 3939,
      "Ġblow": 3940,
      "pit": 3941,
      "istic": 3942,
      "Ġthin": 3943,
      "ker": 3944,
      "ĠSm": 3945,
      "Ġstrugg": 3946,
      "105": 3947,
      "Ġtrave": 3948,
      "Ġclothes": 3949,
      "Ġjustice": 3950,
      "Ġcourage": 3951,
      "umber": 3952,
      "Ġmal": 3953,
      "cription": 3954,
      "Ġbottom": 3955,
      "006": 3956,
      "Ġroyal": 3957,
      "Ġvalue": 3958,
      "tering": 3959,
      "Ġscene": 3960,
      "106": 3961,
      "Ġbab": 3962,
      "port": 3963,
      "Ġauthority": 3964,
      "va": 3965,
      "rael": 3966,
      "ĠUS": 3967,
      "Ġpot": 3968,
      "ashed": 3969,
      "bus": 3970,
      "Ġdoll": 3971,
      "Ġmonth": 3972,
      "ĠMin": 3973,
      "ĠCount": 3974,
      "Ġmult": 3975,
      "Ġreading": 3976,
      "140": 3977,
      "Ġmemory": 3978,
      "Ġcalm": 3979,
      "Ġdoctor": 3980,
      "Ġsimilar": 3981,
      "Ġfond": 3982,
      "Ġcrown": 3983,
      "Ġrequire": 3984,
      "Ġimper": 3985,
      "acc": 3986,
      "007": 3987,
      "Ġterrible": 3988,
      "Ġstation": 3989,
      "Ġmir": 3990,
      "Ġtrain": 3991,
      "160": 3992,
      "Ġhouses": 3993,
      "ĠMarch": 3994,
      "Ġrise": 3995,
      "Or": 3996,
      "Milton": 3997,
      "rig": 3998,
      "ĠPres": 3999,
      "rec": 4000,
      "Ġunless": 4001,
      "Ġaddition": 4002,
      "leep": 4003,
      "Ġforms": 4004,
      "ĠGeneral": 4005,
      "170": 4006,
      "Ġgreatest": 4007,
      "Ġcruel": 4008,
      "`</": 4009,
      "sing": 4010,
      "970": 4011,
      "must": 4012,
      "ĠSte": 4013,
      "Ġmachine": 4014,
      "iet": 4015,
      "met": 4016,
      "Ġeconom": 4017,
      "Ġtest": 4018,
      "Ġakin": 4019,
      "order": 4020,
      "ĠWilliam": 4021,
      "Ġtele": 4022,
      "ounced": 4023,
      "ĠĠĠĠĠĠĠĠĠĠĠ": 4024,
      "bling": 4025,
      "Ġsons": 4026,
      "eper": 4027,
      "hens": 4028,
      "Ġships": 4029,
      "ĠQueen": 4030,
      "Ġfail": 4031,
      "Ġthrew": 4032,
      "Ġpride": 4033,
      "vo": 4034,
      "Ġfancy": 4035,
      "Ġways": 4036,
      "BER": 4037,
      "think": 4038,
      "ĠDav": 4039,
      "270": 4040,
      "Ġexerc": 4041,
      "ella": 4042,
      "960": 4043,
      "hest": 4044,
      "lle": 4045,
      "ailed": 4046,
      "Ġdrawing": 4047,
      "Ġrad": 4048,
      "985": 4049,
      "Come": 4050,
      "Ġvillage": 4051,
      "Ġfavour": 4052,
      "826": 4053,
      "126": 4054,
      "Ġresembl": 4055,
      "Ġsmiled": 4056,
      "870": 4057,
      "rain": 4058,
      "friend": 4059,
      "using": 4060,
      "Chem": 4061,
      "Ġsouth": 4062,
      "last": 4063,
      "Ġris": 4064,
      "ception": 4065,
      "wf": 4066,
      "Ġempt": 4067,
      "Ġspent": 4068,
      "Ġpromise": 4069,
      "Ġignor": 4070,
      "acity": 4071,
      "Ġdecl": 4072,
      "230": 4073,
      "Ġrepro": 4074,
      "ishop": 4075,
      "Ġbare": 4076,
      "ID": 4077,
      "Ġflat": 4078,
      "240": 4079,
      "Ġ{": 4080,
      "940": 4081,
      "Ġoffered": 4082,
      "883": 4083,
      "Ġhid": 4084,
      "Ġfifty": 4085,
      "rif": 4086,
      "Ġtim": 4087,
      "ĠTO": 4088,
      "840": 4089,
      "Ġmountain": 4090,
      "ĠPaul": 4091,
      "950": 4092,
      "ĠBritish": 4093,
      "Syn": 4094,
      "Ġstock": 4095,
      "being": 4096,
      "ental": 4097,
      "Ġkilled": 4098,
      "first": 4099,
      "Ġnative": 4100,
      "004": 4101,
      "Ġbrown": 4102,
      "Ġsimply": 4103,
      "iments": 4104,
      "Ġaid": 4105,
      "Ġsides": 4106,
      "acle": 4107,
      "Ġstranger": 4108,
      "Ġprepared": 4109,
      "Ġspoken": 4110,
      "sed": 4111,
      "ading": 4112,
      "ization": 4113,
      "verse": 4114,
      "Ġinno": 4115,
      "ardon": 4116,
      "iently": 4117,
      "looking": 4118,
      "arl": 4119,
      "atory": 4120,
      "930": 4121,
      "enance": 4122,
      "hum": 4123,
      "Ġyield": 4124,
      "ĠJune": 4125,
      "Ġmeaning": 4126,
      "Ġmurm": 4127,
      "jesty": 4128,
      "Ġjudge": 4129,
      "Ġfaint": 4130,
      "Ġdarkness": 4131,
      "Ġforeign": 4132,
      "Ġdust": 4133,
      "225": 4134,
      "860": 4135,
      "aved": 4136,
      "ems": 4137,
      "racted": 4138,
      "tw": 4139,
      "Ġartic": 4140,
      "ĠMart": 4141,
      "Ġreply": 4142,
      "Ġanimal": 4143,
      "acon": 4144,
      "Ġburst": 4145,
      "sit": 4146,
      "Ġheads": 4147,
      "Ġbehold": 4148,
      "ĠYOU": 4149,
      "olic": 4150,
      "Ġabsolute": 4151,
      "ication": 4152,
      "Ġgenus": 4153,
      "Ġthro": 4154,
      "eav": 4155,
      "cred": 4156,
      "ĠEvery": 4157,
      "ĠAND": 4158,
      "Ġfashion": 4159,
      "onsieur": 4160,
      "805": 4161,
      "Ġeld": 4162,
      "125": 4163,
      "Ġaston": 4164,
      "Ġlikely": 4165,
      "gged": 4166,
      "aced": 4167,
      "Ġopposite": 4168,
      "Ġclean": 4169,
      "Ġrecord": 4170,
      "Ġpossession": 4171,
      "Ġcreature": 4172,
      "Ġnames": 4173,
      "Ġshare": 4174,
      "Ġsoldiers": 4175,
      "people": 4176,
      "unte": 4177,
      "yle": 4178,
      "ĠPl": 4179,
      "Ġlod": 4180,
      "Ġmeasure": 4181,
      "Ġperfectly": 4182,
      "Ġbelieved": 4183,
      "Ġwealth": 4184,
      "Ġobtained": 4185,
      "esh": 4186,
      "Ġpocket": 4187,
      "Ġstudy": 4188,
      "rang": 4189,
      "Ġdare": 4190,
      "NL": 4191,
      "ĠTheir": 4192,
      "ĠSh": 4193,
      "Ġdistinct": 4194,
      "Ġhonest": 4195,
      "alous": 4196,
      "Ġthank": 4197,
      "41": 4198,
      "ita": 4199,
      "round": 4200,
      "165": 4201,
      "appeared": 4202,
      "-</": 4203,
      "145": 4204,
      "Ġdecided": 4205,
      "185": 4206,
      "enth": 4207,
      "orne": 4208,
      "exp": 4209,
      "Ġmarry": 4210,
      "195": 4211,
      "hib": 4212,
      "Ġtaste": 4213,
      "Ġsolemn": 4214,
      "Ġeffort": 4215,
      "Ġwear": 4216,
      "del": 4217,
      "Ġdwell": 4218,
      "Ġpubl": 4219,
      "Ġcontro": 4220,
      "Ġpit": 4221,
      "igned": 4222,
      "220": 4223,
      "ĠRep": 4224,
      "gypt": 4225,
      "Ġbranch": 4226,
      "ĠFran": 4227,
      "Ġcoat": 4228,
      "Ġbrave": 4229,
      "rase": 4230,
      "Ġheight": 4231,
      "Ġvast": 4232,
      "fall": 4233,
      "Ġcatch": 4234,
      "iring": 4235,
      "Ġseek": 4236,
      "Ġdetermined": 4237,
      "81": 4238,
      "Ġpity": 4239,
      "rait": 4240,
      "Ġcoast": 4241,
      "turn": 4242,
      "Ġfault": 4243,
      "Ġsituation": 4244,
      "IM": 4245,
      "ĠPers": 4246,
      "Ġlose": 4247,
      "Ġtongue": 4248,
      "Good": 4249,
      "Ġgrowth": 4250,
      "Ġdropped": 4251,
      "Ġunderstood": 4252,
      "ĠAlex": 4253,
      "Ġarch": 4254,
      "estern": 4255,
      "ĠSy": 4256,
      "Ġtalked": 4257,
      "UR": 4258,
      "845": 4259,
      "Ġvers": 4260,
      "Ġmarked": 4261,
      "Ġcopies": 4262,
      "Ġmodern": 4263,
      "Ã¶l": 4264,
      "rer": 4265,
      "Ġmeeting": 4266,
      "Ġoriginal": 4267,
      "885": 4268,
      "cast": 4269,
      "ordinary": 4270,
      "rey": 4271,
      "ode": 4272,
      "ĠHenry": 4273,
      "iffe": 4274,
      "Ġnoise": 4275,
      "plw": 4276,
      "887": 4277,
      "quis": 4278,
      "Ġfill": 4279,
      "186": 4280,
      "Ġreligion": 4281,
      "EM": 4282,
      "Ġbirds": 4283,
      "Ġemperor": 4284,
      "Ġsplend": 4285,
      "Ġtwelve": 4286,
      "ended": 4287,
      "983": 4288,
      "Ġglance": 4289,
      "chen": 4290,
      "815": 4291,
      "ially": 4292,
      "Ġpersonal": 4293,
      "Ġsacri": 4294,
      "103": 4295,
      "ZoÃ¶l": 4296,
      "oms": 4297,
      "Ġallowed": 4298,
      "Ġtakes": 4299,
      "Ġspecial": 4300,
      "Ġfallen": 4301,
      "Ġopportunity": 4302,
      "Ġii": 4303,
      "Ġgentlemen": 4304,
      "Ġfly": 4305,
      "285": 4306,
      "Med": 4307,
      "these": 4308,
      "Ġapparent": 4309,
      "child": 4310,
      "Ġstir": 4311,
      "Ġlegs": 4312,
      "Ġholy": 4313,
      "Ġterm": 4314,
      "Ġconsiderable": 4315,
      "945": 4316,
      "Ġwitness": 4317,
      "Ġserious": 4318,
      "806": 4319,
      "Sc": 4320,
      "ĠCa": 4321,
      "Ġofficer": 4322,
      "Ġusing": 4323,
      "war": 4324,
      "ĠOR": 4325,
      "ĠOct": 4326,
      "Ġshadow": 4327,
      "ĠLicense": 4328,
      "Ġremoved": 4329,
      "Ġtrademark": 4330,
      "Ġconscious": 4331,
      "283": 4332,
      "Ġgrad": 4333,
      "226": 4334,
      "ĠHall": 4335,
      "Ġcapital": 4336,
      "Ġfate": 4337,
      "ura": 4338,
      "Ġworking": 4339,
      "Ġisn": 4340,
      "Ġadvent": 4341,
      "Ġadvantage": 4342,
      "Ġparticularly": 4343,
      "196": 4344,
      "pril": 4345,
      "Eng": 4346,
      "824": 4347,
      "175": 4348,
      "Ġprim": 4349,
      "Ġstates": 4350,
      "ĠCo": 4351,
      "Ġglory": 4352,
      "Ġones": 4353,
      "Ġcentury": 4354,
      "wr": 4355,
      "ĠPart": 4356,
      "926": 4357,
      "dy": 4358,
      "Ġnamed": 4359,
      "123": 4360,
      "Ġholding": 4361,
      "aval": 4362,
      "935": 4363,
      "Ġhide": 4364,
      "mother": 4365,
      "Ġhom": 4366,
      "Ġdeclared": 4367,
      "hire": 4368,
      "ĠRichard": 4369,
      "water": 4370,
      "Ġshoulder": 4371,
      "Ġbas": 4372,
      "Ġrob": 4373,
      "Ġexactly": 4374,
      "Ġsocial": 4375,
      "take": 4376,
      "ĠState": 4377,
      "Ġven": 4378,
      "135": 4379,
      "lished": 4380,
      "Ġdign": 4381,
      "Ġlui": 4382,
      "Ġrough": 4383,
      "syn": 4384,
      "235": 4385,
      "Ġcurious": 4386,
      "Ġbuilt": 4387,
      "146": 4388,
      "za": 4389,
      "ĠDuke": 4390,
      "itiz": 4391,
      "955": 4392,
      "975": 4393,
      "807": 4394,
      "Ġmatters": 4395,
      "Ġproof": 4396,
      "906": 4397,
      "uments": 4398,
      "Ġsuffer": 4399,
      "Ġdiss": 4400,
      "ensive": 4401,
      "ĠHouse": 4402,
      "Ġgroup": 4403,
      "ĠEn": 4404,
      "Ġentertain": 4405,
      "ĠCharles": 4406,
      "Ġspirits": 4407,
      "because": 4408,
      "urb": 4409,
      "905": 4410,
      "Ġfan": 4411,
      "Ġtrembl": 4412,
      "Ġoil": 4413,
      "Ġgolden": 4414,
      "Ġchamber": 4415,
      "176": 4416,
      "Ġwatched": 4417,
      "224": 4418,
      "oles": 4419,
      "Ġsuspic": 4420,
      "Ġmission": 4421,
      "whe": 4422,
      "Ġearnest": 4423,
      "ainted": 4424,
      "137": 4425,
      "ĠIsrael": 4426,
      "Ġengaged": 4427,
      "Ġsteam": 4428,
      "886": 4429,
      "Ġpermission": 4430,
      "Ġpieces": 4431,
      "bu": 4432,
      "197": 4433,
      "127": 4434,
      "Ġcountries": 4435,
      "ĠJames": 4436,
      "187": 4437,
      "ĠJuly": 4438,
      "==": 4439,
      "107": 4440,
      "227": 4441,
      "Ã¹": 4442,
      "oned": 4443,
      "ĠJust": 4444,
      "ĠVal": 4445,
      "Ġfreed": 4446,
      "827": 4447,
      "jud": 4448,
      "Ġow": 4449,
      "Ġamb": 4450,
      "van": 4451,
      "286": 4452,
      "wind": 4453,
      "Ġgods": 4454,
      "ĠJew": 4455,
      "Ġdifficulty": 4456,
      "Ġrising": 4457,
      "illa": 4458,
      "Ġappears": 4459,
      "976": 4460,
      "ses": 4461,
      "ĠEli": 4462,
      "shall": 4463,
      "Ġharm": 4464,
      "ĠLat": 4465,
      "965": 4466,
      "respond": 4467,
      "Ġcommunic": 4468,
      "supp": 4469,
      "key": 4470,
      "136": 4471,
      "erted": 4472,
      "924": 4473,
      "Ġthreat": 4474,
      "Ġ(_": 4475,
      "Ġpractice": 4476,
      "915": 4477,
      "Ġinterrupt": 4478,
      "Ġrequired": 4479,
      "ĠShak": 4480,
      "zy": 4481,
      "Ġlies": 4482,
      "nothing": 4483,
      "ĠFather": 4484,
      "Ġstick": 4485,
      "816": 4486,
      "ushing": 4487,
      "Ġcurrent": 4488,
      "woman": 4489,
      "char": 4490,
      "ete": 4491,
      "orious": 4492,
      "ĠLu": 4493,
      "AB": 4494,
      "947": 4495,
      "Ġservants": 4496,
      "Ġkeeping": 4497,
      "Ġworthy": 4498,
      "igence": 4499,
      "gs": 4500,
      "Ġparent": 4501,
      "820": 4502,
      "Ġamount": 4503,
      "Ġhigher": 4504,
      "things": 4505,
      "ĠGl": 4506,
      "Ġsupper": 4507,
      "986": 4508,
      "Ġfeelings": 4509,
      "956": 4510,
      "Ġedge": 4511,
      "825": 4512,
      "Ġbent": 4513,
      "Ġexample": 4514,
      "Ġconcerning": 4515,
      "],": 4516,
      "Ġgives": 4517,
      "Ġangry": 4518,
      "Ġwonderful": 4519,
      "ST": 4520,
      "athered": 4521,
      "936": 4522,
      "966": 4523,
      "287": 4524,
      "conf": 4525,
      "Ġspite": 4526,
      "Ġvirtue": 4527,
      "Ġfingers": 4528,
      "Ġbless": 4529,
      "193": 4530,
      "ĠCal": 4531,
      "Ġprovided": 4532,
      "ĠAugust": 4533,
      "Ġweather": 4534,
      "Ã¨re": 4535,
      "Ġsymp": 4536,
      "Ġteeth": 4537,
      "against": 4538,
      "orous": 4539,
      "Ġbuilding": 4540,
      "standing": 4541,
      "Foot": 4542,
      "Ġaud": 4543,
      "Ġloose": 4544,
      "Ġshape": 4545,
      "Ġreven": 4546,
      "Ġdevil": 4547,
      "946": 4548,
      "inst": 4549,
      "Ġordinary": 4550,
      "minist": 4551,
      "Ġupper": 4552,
      "rust": 4553,
      "Ġprove": 4554,
      "Ġesp": 4555,
      "Ġcaused": 4556,
      "Ġcompanion": 4557,
      "otes": 4558,
      "Ġexistence": 4559,
      "Ġcarriage": 4560,
      "927": 4561,
      "iqu": 4562,
      "mind": 4563,
      "plu": 4564,
      "vis": 4565,
      "Ġpack": 4566,
      "Ġtrade": 4567,
      "fa": 4568,
      "ĠEven": 4569,
      "icit": 4570,
      "aper": 4571,
      "803": 4572,
      "Ġfaces": 4573,
      "inks": 4574,
      "Ġflight": 4575,
      "Ġsen": 4576,
      "Ġknowing": 4577,
      "ĠRuss": 4578,
      "aces": 4579,
      "ĠHo": 4580,
      "ulf": 4581,
      "907": 4582,
      "903": 4583,
      "215": 4584,
      "Ġqual": 4585,
      "LA": 4586,
      "held": 4587,
      "987": 4588,
      "Ġbull": 4589,
      "ivered": 4590,
      "uit": 4591,
      "183": 4592,
      "Ġregular": 4593,
      "fessor": 4594,
      "147": 4595,
      "Ġdism": 4596,
      "Ġrejo": 4597,
      "Ġgrief": 4598,
      "Ġhandsome": 4599,
      "Ġtum": 4600,
      "Ġpersu": 4601,
      "Ab": 4602,
      "aker": 4603,
      "846": 4604,
      "Ġforced": 4605,
      "Ad": 4606,
      "Ġofficial": 4607,
      "Ġobserv": 4608,
      "Ġmountains": 4609,
      "hant": 4610,
      "Ġcases": 4611,
      "Ġbore": 4612,
      "Ġisland": 4613,
      "Ġshoulders": 4614,
      "236": 4615,
      "Ġfinished": 4616,
      "tell": 4617,
      "Ġrail": 4618,
      "977": 4619,
      "Ġroof": 4620,
      "Ġwicked": 4621,
      "ĠÃ©": 4622,
      "Ġcomput": 4623,
      "Ġrank": 4624,
      "half": 4625,
      "Ġourselves": 4626,
      "Ġflesh": 4627,
      "something": 4628,
      "since": 4629,
      "ĠEast": 4630,
      "Ġdouble": 4631,
      "bro": 4632,
      "Ġnice": 4633,
      "rill": 4634,
      "Ġaffairs": 4635,
      "Ġwand": 4636,
      "gutenberg": 4637,
      "Ġinstrument": 4638,
      "Ġknock": 4639,
      "Ġprogress": 4640,
      "177": 4641,
      "Ġaside": 4642,
      "ĠEgypt": 4643,
      "925": 4644,
      "Ġdirectly": 4645,
      "Ġarea": 4646,
      "suff": 4647,
      "ĠThom": 4648,
      "God": 4649,
      "Ġsize": 4650,
      "ET": 4651,
      "Ġforty": 4652,
      "Ġserve": 4653,
      "terday": 4654,
      "arest": 4655,
      "943": 4656,
      "ĠChurch": 4657,
      "Ġquarter": 4658,
      "ometimes": 4659,
      "Ġinhabit": 4660,
      "Ġrend": 4661,
      "920": 4662,
      "Ġcell": 4663,
      "Ġexcellent": 4664,
      "Ġfemale": 4665,
      "Ġguess": 4666,
      "133": 4667,
      "967": 4668,
      "Ġnation": 4669,
      "Ġgovern": 4670,
      "found": 4671,
      "ĠBl": 4672,
      "onder": 4673,
      "166": 4674,
      "804": 4675,
      "omin": 4676,
      "Ġ50": 4677,
      "Le": 4678,
      "Ġwaited": 4679,
      "ĠRom": 4680,
      "ok": 4681,
      "ĠJack": 4682,
      "Ġplus": 4683,
      "Ġplayed": 4684,
      "124": 4685,
      "ators": 4686,
      "LL": 4687,
      "cop": 4688,
      "Ġsurprised": 4689,
      "104": 4690,
      "Ġrefund": 4691,
      "estic": 4692,
      "Ġaccepted": 4693,
      "ĠJer": 4694,
      "ĠApril": 4695,
      "Ġpalace": 4696,
      "emp": 4697,
      "Ġfamiliar": 4698,
      "Ġcontain": 4699,
      "Ġshalt": 4700,
      "Ġkingdom": 4701,
      "ESS": 4702,
      "........................": 4703,
      "Ġforgotten": 4704,
      "233": 4705,
      "inn": 4706,
      "Ġbenef": 4707,
      "830": 4708,
      "book": 4709,
      "board": 4710,
      "Ġcrim": 4711,
      "Ġproved": 4712,
      "ulture": 4713,
      "happy": 4714,
      "963": 4715,
      "ĠAny": 4716,
      "urally": 4717,
      "asing": 4718,
      "Ġnumerous": 4719,
      "0000": 4720,
      "Ġunf": 4721,
      "bury": 4722,
      "Ġsettled": 4723,
      "237": 4724,
      "ĠDor": 4725,
      "Ġdiscuss": 4726,
      "iting": 4727,
      "Ġalive": 4728,
      "Ġflower": 4729,
      "Ã¨s": 4730,
      "Ġble": 4731,
      "ĠTur": 4732,
      "Ġrare": 4733,
      "OO": 4734,
      "put": 4735,
      "937": 4736,
      "957": 4737,
      "Ġsought": 4738,
      "ara": 4739,
      "Ġscience": 4740,
      "Ġunivers": 4741,
      "ese": 4742,
      "143": 4743,
      "asc": 4744,
      "Ġbal": 4745,
      "Ġobliged": 4746,
      "Pr": 4747,
      "host": 4748,
      "Ġthrow": 4749,
      "Ġleap": 4750,
      "167": 4751,
      "Ġsubstance": 4752,
      "Ġendeav": 4753,
      "Ġwalking": 4754,
      "Ġrule": 4755,
      "Ġefforts": 4756,
      "Ġprincipal": 4757,
      "Ġquant": 4758,
      "Ġvalley": 4759,
      "904": 4760,
      "Ġnose": 4761,
      "Ġorders": 4762,
      "Ġengine": 4763,
      "Ġpair": 4764,
      "144": 4765,
      "Ġconcl": 4766,
      "Ġminister": 4767,
      "Ġbesides": 4768,
      "ĠDick": 4769,
      "enser": 4770,
      "Ġpossessed": 4771,
      "omb": 4772,
      "Ġdistant": 4773,
      "Ġdiscover": 4774,
      "nel": 4775,
      "Ġafford": 4776,
      "Ġempty": 4777,
      "Ġmembers": 4778,
      "ĠRobert": 4779,
      "Ġhurt": 4780,
      "Ġstage": 4781,
      "ousin": 4782,
      "dro": 4783,
      "Ġpresently": 4784,
      "Ġ...": 4785,
      "Ġconfidence": 4786,
      "843": 4787,
      "ĠGreat": 4788,
      "Ġobtain": 4789,
      "ĠGreek": 4790,
      "Ġpos": 4791,
      "173": 4792,
      "attered": 4793,
      "asant": 4794,
      "Ġformerly": 4795,
      "Ġemployed": 4796,
      "Ġowner": 4797,
      "ĠâĢĶ": 4798,
      "ĠWar": 4799,
      "260": 4800,
      "Ġing": 4801,
      "Ġclim": 4802,
      "Ġcool": 4803,
      "Ġcontent": 4804,
      "those": 4805,
      "Ġstreets": 4806,
      "away": 4807,
      "973": 4808,
      "Ġrub": 4809,
      "Ġtired": 4810,
      "Ġdisapp": 4811,
      "Ġtwice": 4812,
      "asy": 4813,
      "Ġspect": 4814,
      "Ġintellect": 4815,
      "duce": 4816,
      "Your": 4817,
      "Ġgrowing": 4818,
      "Ġtransp": 4819,
      "Footnote": 4820,
      "ĠStreet": 4821,
      "ores": 4822,
      "850": 4823,
      "ĠBur": 4824,
      "Will": 4825,
      "Ġsour": 4826,
      "atures": 4827,
      "847": 4828,
      "Ġshame": 4829,
      "Ġsquare": 4830,
      "Ġthrown": 4831,
      "cond": 4832,
      "Ġtout": 4833,
      "ĠMal": 4834,
      "Ġswift": 4835,
      "umin": 4836,
      "Ġaccompl": 4837,
      "Ġwasn": 4838,
      "Ġstars": 4839,
      "Ġanxious": 4840,
      "Ġdull": 4841,
      "Ġmeas": 4842,
      "pher": 4843,
      "Ġhearts": 4844,
      "came": 4845,
      "ĠRed": 4846,
      "Ġenemies": 4847,
      "ĠMic": 4848,
      "Ġinside": 4849,
      "rans": 4850,
      "953": 4851,
      "Ġsuit": 4852,
      "Ġagreed": 4853,
      "Ġmentioned": 4854,
      "conscious": 4855,
      "asons": 4856,
      "Ġofficers": 4857,
      "?'": 4858,
      "Ġweeks": 4859,
      "Ġjudgment": 4860,
      "Ġpromised": 4861,
      "ĠHaving": 4862,
      "Ġdoct": 4863,
      "Ġcard": 4864,
      "Ġliberty": 4865,
      "ĠCourt": 4866,
      "course": 4867,
      "163": 4868,
      "ryden": 4869,
      "izing": 4870,
      "Ġmoral": 4871,
      "Ġopening": 4872,
      "lease": 4873,
      "Ġskin": 4874,
      "Ġcow": 4875,
      "Ġideas": 4876,
      "unch": 4877,
      "Ġdig": 4878,
      "itic": 4879,
      "astic": 4880,
      "Ġescap": 4881,
      "Ġquestions": 4882,
      "Ġenv": 4883,
      "Ġdrive": 4884,
      "ixt": 4885,
      "inc": 4886,
      "933": 4887,
      "ĠMore": 4888,
      "Ġtea": 4889,
      "Ġacquaint": 4890,
      "four": 4891,
      "ato": 4892,
      "Ġordered": 4893,
      "Ġserved": 4894,
      "Ġsuggest": 4895,
      "Ġliqu": 4896,
      "134": 4897,
      "Ġpowers": 4898,
      "Ġpriest": 4899,
      ":--": 4900,
      "Ġtouched": 4901,
      "265": 4902,
      "Ġpounds": 4903,
      "udden": 4904,
      "Ġyours": 4905,
      "ivity": 4906,
      "Ġpor": 4907,
      "Ġremembered": 4908,
      "Ġtal": 4909,
      "ĠAnne": 4910,
      "iber": 4911,
      "Ġalt": 4912,
      "Ġlibr": 4913,
      "Ġsuperior": 4914,
      "icious": 4915,
      "ĠEl": 4916,
      "ĠScot": 4917,
      "ulated": 4918,
      "sue": 4919,
      "Ġgain": 4920,
      "234": 4921,
      "uary": 4922,
      "194": 4923,
      "155": 4924,
      "contin": 4925,
      "stairs": 4926,
      "Ġpolitical": 4927,
      "ĠeBooks": 4928,
      "Miss": 4929,
      "het": 4930,
      "pelled": 4931,
      "ĠLou": 4932,
      "Ġevidence": 4933,
      "Ġtelling": 4934,
      "Ġcrime": 4935,
      "Ġworked": 4936,
      "Ġdifference": 4937,
      "ĠUN": 4938,
      "elect": 4939,
      "Ġconqu": 4940,
      "cles": 4941,
      "Ġfinally": 4942,
      "cref": 4943,
      "Ġexplan": 4944,
      "ĠJud": 4945,
      "Ġpointed": 4946,
      "bell": 4947,
      "another": 4948,
      "Dis": 4949,
      "184": 4950,
      "Ġacid": 4951,
      "life": 4952,
      "llen": 4953,
      "440": 4954,
      "Ġbodies": 4955,
      "inking": 4956,
      "ĠHeaven": 4957,
      "Ġbag": 4958,
      "Ġshown": 4959,
      "ifferent": 4960,
      "ĠYour": 4961,
      "ele": 4962,
      ">)": 4963,
      "255": 4964,
      "ĠMo": 4965,
      "ĠII": 4966,
      "Ġuns": 4967,
      "Ġintended": 4968,
      "Ġluck": 4969,
      "Ġsufficient": 4970,
      "Ġdistributing": 4971,
      "Ġproc": 4972,
      "Ġpoints": 4973,
      "gers": 4974,
      "ims": 4975,
      "iece": 4976,
      "Ġportion": 4977,
      "Ġgloom": 4978,
      "laf": 4979,
      "Go": 4980,
      "Ġproduce": 4981,
      "ĠItaly": 4982,
      "umn": 4983,
      "Ġtitle": 4984,
      "umph": 4985,
      "Ġdise": 4986,
      "covery": 4987,
      "934": 4988,
      "Ġgreatly": 4989,
      "non": 4990,
      "rine": 4991,
      "post": 4992,
      "Ġanimals": 4993,
      "Ġreck": 4994,
      "ĠOld": 4995,
      "cra": 4996,
      "ĠAN": 4997,
      "Ġcontaining": 4998,
      "Ġprec": 4999,
      "Ġmedium": 5000,
      "llust": 5001,
      "276": 5002,
      "ege": 5003,
      "Ġreligious": 5004,
      "205": 5005,
      "ishes": 5006,
      "ĠdÃ©": 5007,
      "ective": 5008,
      "974": 5009,
      "844": 5010,
      "Ġhearing": 5011,
      "Ġproject": 5012,
      "iation": 5013,
      "Am": 5014,
      "five": 5015,
      "ĠOur": 5016,
      "Ġcountenance": 5017,
      "Ġseason": 5018,
      "Ġextent": 5019,
      "ĠCr": 5020,
      "174": 5021,
      "tis": 5022,
      "Ġmidst": 5023,
      "Ġbrain": 5024,
      "Ġvig": 5025,
      "256": 5026,
      "Ġdit": 5027,
      "Ġshop": 5028,
      "865": 5029,
      "Nor": 5030,
      "Ġwin": 5031,
      "ufact": 5032,
      "ĠGood": 5033,
      "ĠFeb": 5034,
      "Ġplants": 5035,
      "Ġinteresting": 5036,
      "Ġgrown": 5037,
      "Ġwheel": 5038,
      "954": 5039,
      "Ġsecure": 5040,
      "Ġcook": 5041,
      "835": 5042,
      "Ġoccupied": 5043,
      "Ġaffect": 5044,
      "ĠDavid": 5045,
      "Ġsmoke": 5046,
      "arther": 5047,
      "Ġterror": 5048,
      "875": 5049,
      "Jo": 5050,
      "Ġexplain": 5051,
      "Ġcup": 5052,
      "Ġthine": 5053,
      "Ġexceed": 5054,
      "iel": 5055,
      "Ġcontrary": 5056,
      "Ġreign": 5057,
      "ĠNe": 5058,
      "Ġhappen": 5059,
      "Se": 5060,
      "Ġdressed": 5061,
      "Ġinn": 5062,
      "855": 5063,
      "mas": 5064,
      "utation": 5065,
      "hon": 5066,
      "836": 5067,
      "Ġpapers": 5068,
      "ĠMer": 5069,
      "Ġwa": 5070,
      "power": 5071,
      "156": 5072,
      "Ġhills": 5073,
      "ros": 5074,
      "ĠLaw": 5075,
      "Ġcastle": 5076,
      "Ġphysical": 5077,
      "IG": 5078,
      "interest": 5079,
      "ĠHol": 5080,
      "irect": 5081,
      "Ġqueen": 5082,
      "incess": 5083,
      "ĠSan": 5084,
      "Ġrode": 5085,
      "964": 5086,
      "Ġinvol": 5087,
      "ĠBel": 5088,
      "bid": 5089,
      "Ġadop": 5090,
      "Ġbreakfast": 5091,
      "Ġnine": 5092,
      "ĠScott": 5093,
      "Ġener": 5094,
      "Ġcoach": 5095,
      "Ġphrase": 5096,
      "ulous": 5097,
      "Ġdoth": 5098,
      "Ġvolunte": 5099,
      "Ġtail": 5100,
      "Ġwaters": 5101,
      "oop": 5102,
      "Ġinvent": 5103,
      "iron": 5104,
      "Ġeast": 5105,
      "Ġhuge": 5106,
      "icated": 5107,
      "Ġdistinguished": 5108,
      "Ġpopular": 5109,
      "Ġliked": 5110,
      "ĠSuch": 5111,
      "Ġgoods": 5112,
      "Ġtroops": 5113,
      "Ġbase": 5114,
      "Ġmale": 5115,
      "opp": 5116,
      "aient": 5117,
      "Ġbusy": 5118,
      "Ġpage": 5119,
      "ĠAnn": 5120,
      "//": 5121,
      "266": 5122,
      "rat": 5123,
      "Ġlit": 5124,
      "Ġseized": 5125,
      "Ġinstance": 5126,
      "di": 5127,
      "uel": 5128,
      "Ġunknown": 5129,
      "Ġsentence": 5130,
      "944": 5131,
      "Ġotherwise": 5132,
      "Ġfinding": 5133,
      "ari": 5134,
      "Ġexplained": 5135,
      "Ġfierce": 5136,
      "800": 5137,
      "Ġwindows": 5138,
      "Ġbuy": 5139,
      "abor": 5140,
      "246": 5141,
      "Ġmyst": 5142,
      "rences": 5143,
      "pur": 5144,
      "Ġain": 5145,
      "Ġlistened": 5146,
      "ĠHel": 5147,
      "Ġwhispered": 5148,
      "245": 5149,
      "Ġmoving": 5150,
      "Ġlands": 5151,
      "Ġdomain": 5152,
      "lebr": 5153,
      "206": 5154,
      "fle": 5155,
      "ĠRob": 5156,
      "Ġattached": 5157,
      "Ġsigh": 5158,
      "ĠPen": 5159,
      "athy": 5160,
      "Ġexcl": 5161,
      "Ġwore": 5162,
      "ĠJane": 5163,
      "three": 5164,
      "ĠMaster": 5165,
      "Ġsevere": 5166,
      "rows": 5167,
      "Ġwest": 5168,
      "Ġsacred": 5169,
      "157": 5170,
      "ternal": 5171,
      "icable": 5172,
      "Ġstyle": 5173,
      "rous": 5174,
      "ĠYes": 5175,
      "theless": 5176,
      "ĠSpan": 5177,
      "Ġodd": 5178,
      "Ã¬": 5179,
      "Ġfet": 5180,
      "ĠCor": 5181,
      "Ġgray": 5182,
      "ulate": 5183,
      "Ġdescribed": 5184,
      "Ġputting": 5185,
      "mis": 5186,
      "tle": 5187,
      "Ġpill": 5188,
      "Ġvariety": 5189,
      "ourn": 5190,
      "ĠDem": 5191,
      "866": 5192,
      "164": 5193,
      "ico": 5194,
      "Ġlevel": 5195,
      "ser": 5196,
      "aches": 5197,
      "nding": 5198,
      "lot": 5199,
      "Ġave": 5200,
      "Ġnobody": 5201,
      "650": 5202,
      "Ġliter": 5203,
      "Ġsoldier": 5204,
      "isl": 5205,
      "ground": 5206,
      "275": 5207,
      "Ġlisten": 5208,
      "ential": 5209,
      "Ġexchan": 5210,
      "Ġpick": 5211,
      "sw": 5212,
      "ĠChi": 5213,
      "phone": 5214,
      "Ġresolved": 5215,
      "Ġpowerful": 5216,
      "Ġcalcul": 5217,
      "AC": 5218,
      "pres": 5219,
      "ĠMadame": 5220,
      "boy": 5221,
      "gon": 5222,
      "lim": 5223,
      "still": 5224,
      "rue": 5225,
      "Ġdate": 5226,
      "Ġarrange": 5227,
      "Ġcontempt": 5228,
      "Ġlifted": 5229,
      "876": 5230,
      "Ġsuffered": 5231,
      "Ġwound": 5232,
      "Ġlaughing": 5233,
      "!'": 5234,
      "Ġ199": 5235,
      "seen": 5236,
      "Ġremarkable": 5237,
      "Ġtaught": 5238,
      "aming": 5239,
      "Ġhopes": 5240,
      "856": 5241,
      "gain": 5242,
      "ortion": 5243,
      "Ge": 5244,
      "Ġnations": 5245,
      "Ġdistribution": 5246,
      "rog": 5247,
      "Ġkey": 5248,
      "153": 5249,
      "seless": 5250,
      "âĢĶâĢĿ": 5251,
      "Ġfreedom": 5252,
      "aling": 5253,
      "ĠThomas": 5254,
      "sured": 5255,
      "Ġimagine": 5256,
      "Ġcredit": 5257,
      "inging": 5258,
      "iest": 5259,
      "Ġevents": 5260,
      "Ġclearly": 5261,
      "Ġbrief": 5262,
      "inci": 5263,
      "stra": 5264,
      "blem": 5265,
      "lls": 5266,
      "bits": 5267,
      "ĠIr": 5268,
      "ĠConstant": 5269,
      "350": 5270,
      "750": 5271,
      "Ġ21": 5272,
      "Ġrev": 5273,
      "cluded": 5274,
      "ecause": 5275,
      "Ġplate": 5276,
      "Some": 5277,
      "Ġgle": 5278,
      "ĠLy": 5279,
      "Ġsubs": 5280,
      "Ġexpend": 5281,
      "Ġlovely": 5282,
      "217": 5283,
      "pons": 5284,
      "247": 5285,
      "olid": 5286,
      "Ġdoors": 5287,
      "ault": 5288,
      "ĠHigh": 5289,
      "Ġlog": 5290,
      "Ġcomply": 5291,
      "Ġcircle": 5292,
      "ante": 5293,
      "ĠBen": 5294,
      "These": 5295,
      "Ġsatisfied": 5296,
      "dra": 5297,
      "Ġmajor": 5298,
      "Ġobst": 5299,
      "empl": 5300,
      "ension": 5301,
      "919": 5302,
      "Ġwoods": 5303,
      "itz": 5304,
      "ĠHowever": 5305,
      "Ġquietly": 5306,
      "Ġdangerous": 5307,
      "ĠArab": 5308,
      "857": 5309,
      "814": 5310,
      "Ġneighbour": 5311,
      "serv": 5312,
      "Ġ22": 5313,
      "ĠWor": 5314,
      "867": 5315,
      "adj": 5316,
      "Ġprotect": 5317,
      "Ġ33": 5318,
      "Ġknees": 5319,
      "294": 5320,
      "Ġspr": 5321,
      "Ġsingular": 5322,
      "itchen": 5323,
      "Ġfortun": 5324,
      "Ġsan": 5325,
      "unning": 5326,
      "Ġ40": 5327,
      "Ġcompar": 5328,
      "say": 5329,
      "819": 5330,
      "Ġadvanced": 5331,
      "450": 5332,
      "Ġfold": 5333,
      "Ġdespair": 5334,
      "utions": 5335,
      "Ġstones": 5336,
      "Ġpresented": 5337,
      "Are": 5338,
      "Ġstorm": 5339,
      "rees": 5340,
      "ranged": 5341,
      "Ġwings": 5342,
      "ĠPal": 5343,
      "ĠPRO": 5344,
      "833": 5345,
      "Ġmurder": 5346,
      "oring": 5347,
      "mist": 5348,
      "877": 5349,
      "Ġfalling": 5350,
      "]</": 5351,
      "Ġcities": 5352,
      "Ġcarefully": 5353,
      "Ġcheck": 5354,
      "door": 5355,
      "ĠJul": 5356,
      "277": 5357,
      "Ġaccident": 5358,
      "Ġfarm": 5359,
      "Ġparties": 5360,
      "837": 5361,
      "Ã¼": 5362,
      "Ġreport": 5363,
      "Ġhurried": 5364,
      "make": 5365,
      "Ġmovement": 5366,
      "rors": 5367,
      "agon": 5368,
      "Ġident": 5369,
      "remon": 5370,
      "ĠCome": 5371,
      "Ġcoff": 5372,
      "unday": 5373,
      "ĠIndia": 5374,
      "Ġgathered": 5375,
      "Ġimpat": 5376,
      "Ġpardon": 5377,
      "Ġcorrespond": 5378,
      "OW": 5379,
      "bra": 5380,
      "ĠTer": 5381,
      "agement": 5382,
      "Ġdivine": 5383,
      "Ġsmiling": 5384,
      "follow": 5385,
      "sect": 5386,
      "case": 5387,
      "Ġcitiz": 5388,
      "Ġnoticed": 5389,
      "Ġshock": 5390,
      "ribute": 5391,
      "Having": 5392,
      "Ġstern": 5393,
      "Ġdesired": 5394,
      "273": 5395,
      "zab": 5396,
      "erves": 5397,
      "Ġren": 5398,
      "eless": 5399,
      "Ã¡": 5400,
      "poss": 5401,
      "Ġtype": 5402,
      "Ġge": 5403,
      "Ġactive": 5404,
      "hr": 5405,
      "Ġbillion": 5406,
      "ĠIm": 5407,
      "ĠRoyal": 5408,
      "master": 5409,
      "Ġtravel": 5410,
      "arse": 5411,
      "fulness": 5412,
      "Ġperman": 5413,
      "ĠThou": 5414,
      "Ġsucceeded": 5415,
      "Ġsevent": 5416,
      "Ġfully": 5417,
      "ĠrÃ©": 5418,
      "917": 5419,
      "Ġregarded": 5420,
      "mission": 5421,
      "semb": 5422,
      "lose": 5423,
      "914": 5424,
      "called": 5425,
      "257": 5426,
      "othe": 5427,
      "Ġaltogether": 5428,
      "Ġprefer": 5429,
      "1990": 5430,
      "Chaucer": 5431,
      "going": 5432,
      "Ġworst": 5433,
      "994": 5434,
      "Ġadvice": 5435,
      "923": 5436,
      "267": 5437,
      "Ġjoined": 5438,
      "da": 5439,
      "873": 5440,
      "813": 5441,
      "young": 5442,
      "212": 5443,
      "897": 5444,
      "Ġcouple": 5445,
      "Ġbelief": 5446,
      "244": 5447,
      "203": 5448,
      "ols": 5449,
      "ĠEst": 5450,
      "Ġfamous": 5451,
      "ugg": 5452,
      "253": 5453,
      "uated": 5454,
      "ĠSept": 5455,
      "Ġhighest": 5456,
      "894": 5457,
      "Ġworn": 5458,
      "Ġwatching": 5459,
      "Ġsurely": 5460,
      "foot": 5461,
      "wick": 5462,
      "Ġwisdom": 5463,
      "Ġindepend": 5464,
      "Ġlegal": 5465,
      "Ġhaven": 5466,
      "Ġaware": 5467,
      "phe": 5468,
      "lier": 5469,
      "cis": 5470,
      "icy": 5471,
      "ria": 5472,
      "haust": 5473,
      "works": 5474,
      "born": 5475,
      "817": 5476,
      "Ġfacts": 5477,
      "Ġfrequently": 5478,
      "254": 5479,
      "anim": 5480,
      "Ġanger": 5481,
      "997": 5482,
      "812": 5483,
      "----------------": 5484,
      "Ġwed": 5485,
      "207": 5486,
      "Ġleading": 5487,
      "Ġtrem": 5488,
      "________": 5489,
      "aud": 5490,
      "Ġbid": 5491,
      "Ġpraise": 5492,
      "itute": 5493,
      "appear": 5494,
      "913": 5495,
      "216": 5496,
      "Ġinquired": 5497,
      "Ġextraordinary": 5498,
      "Can": 5499,
      "823": 5500,
      "Ġmistress": 5501,
      "prom": 5502,
      "893": 5503,
      "ller": 5504,
      "ounce": 5505,
      "Ġpictures": 5506,
      "eps": 5507,
      "iosity": 5508,
      "Ġcolour": 5509,
      "ĠEuropean": 5510,
      "Ġbridge": 5511,
      "912": 5512,
      "ams": 5513,
      "900": 5514,
      "ĠWhile": 5515,
      "Pl": 5516,
      "ds": 5517,
      "863": 5518,
      "duction": 5519,
      "Ġexpressed": 5520,
      "223": 5521,
      "896": 5522,
      "ECT": 5523,
      "Ġiv": 5524,
      "Ġproceeded": 5525,
      "Ġtempt": 5526,
      "Ġslave": 5527,
      "996": 5528,
      "rated": 5529,
      "Ġgather": 5530,
      "osen": 5531,
      "Red": 5532,
      "Ġsaf": 5533,
      "Ġdollars": 5534,
      "296": 5535,
      "Did": 5536,
      "Ġstup": 5537,
      "Ġcarrying": 5538,
      "ban": 5539,
      "243": 5540,
      "erving": 5541,
      "Ġdrop": 5542,
      ">-": 5543,
      "Ġride": 5544,
      "inate": 5545,
      "Ġhate": 5546,
      "Ġexplanation": 5547,
      "Ġfix": 5548,
      "Ġmercy": 5549,
      "263": 5550,
      "Ġamaz": 5551,
      "Ġempire": 5552,
      "Ġhosp": 5553,
      "274": 5554,
      "ocr": 5555,
      "osom": 5556,
      "Ġthorough": 5557,
      "Ġconditions": 5558,
      "looked": 5559,
      "Ġcord": 5560,
      "810": 5561,
      "Ġhither": 5562,
      "Ġgas": 5563,
      "Ġdriven": 5564,
      "895": 5565,
      "Ġestablished": 5566,
      "ĠSpe": 5567,
      "Ġsuppl": 5568,
      "fin": 5569,
      "Ġsuggested": 5570,
      "vation": 5571,
      "993": 5572,
      "Ġsovere": 5573,
      "asped": 5574,
      "agger": 5575,
      "Ġimmediate": 5576,
      "net": 5577,
      "655": 5578,
      "ĠPhilip": 5579,
      "Ġfed": 5580,
      "irgin": 5581,
      "atre": 5582,
      "770": 5583,
      "ula": 5584,
      "Ġmanners": 5585,
      "inder": 5586,
      "219": 5587,
      "884": 5588,
      "ĠAfrica": 5589,
      "Ġoccurred": 5590,
      "icted": 5591,
      "ads": 5592,
      "Ġremarked": 5593,
      "mod": 5594,
      "iture": 5595,
      "Ġfled": 5596,
      "ĠBrown": 5597,
      "Ġimportance": 5598,
      "ĠWhite": 5599,
      "inced": 5600,
      "Ġcreated": 5601,
      "Ġlack": 5602,
      "Ġremains": 5603,
      "Ġseated": 5604,
      "Ġsaved": 5605,
      "Dryden": 5606,
      "Ġnet": 5607,
      "Ġbegun": 5608,
      "iform": 5609,
      "Ġmyster": 5610,
      "853": 5611,
      "isher": 5612,
      "Ġsolid": 5613,
      "Ġstrike": 5614,
      "818": 5615,
      "Ġpurcha": 5616,
      "Ġtruly": 5617,
      "Ġcorrect": 5618,
      "ĠMed": 5619,
      "Ġcalling": 5620,
      "Ġasleep": 5621,
      "lie": 5622,
      "Ġbearing": 5623,
      "Ġworship": 5624,
      "lection": 5625,
      "Ġseries": 5626,
      "Ġpron": 5627,
      "Ġthrust": 5628,
      "ĠXX": 5629,
      "Ġdemanded": 5630,
      "Ġpulled": 5631,
      "213": 5632,
      "Ġdrove": 5633,
      "Ġdoesn": 5634,
      "necess": 5635,
      "Ġresults": 5636,
      "Sand": 5637,
      "sk": 5638,
      "Ġappointed": 5639,
      "Ġsaith": 5640,
      "Ġequally": 5641,
      "lement": 5642,
      "ĠGovernment": 5643,
      "Ġmerry": 5644,
      "Ġhesit": 5645,
      "enced": 5646,
      "Ġadvance": 5647,
      "293": 5648,
      "Ġfarther": 5649,
      "went": 5650,
      "',": 5651,
      "ĠHist": 5652,
      "297": 5653,
      "Ġcommer": 5654,
      "284": 5655,
      "ĠSch": 5656,
      "took": 5657,
      "Ġchoose": 5658,
      "Ġsubjects": 5659,
      "zed": 5660,
      "605": 5661,
      "918": 5662,
      "Ġabsence": 5663,
      "Ġcabin": 5664,
      "995": 5665,
      "Ġburning": 5666,
      "ĠMont": 5667,
      "330": 5668,
      "Ġaunt": 5669,
      "984": 5670,
      "Ġfo": 5671,
      "Ġmember": 5672,
      "ieved": 5673,
      "295": 5674,
      "214": 5675,
      "916": 5676,
      "Ġdisci": 5677,
      "ĠBo": 5678,
      "ĠSmith": 5679,
      "Ġsmooth": 5680,
      "880": 5681,
      "Ġtrick": 5682,
      "Ġbeast": 5683,
      "Ġsteel": 5684,
      "Ġwet": 5685,
      "Ġframe": 5686,
      "zabeth": 5687,
      "ĠFred": 5688,
      "Than": 5689,
      "icial": 5690,
      "Ġrom": 5691,
      "ilities": 5692,
      "ĠVer": 5693,
      "lessly": 5694,
      "rim": 5695,
      "Ġyesterday": 5696,
      "Im": 5697,
      "656": 5698,
      "Ġhighly": 5699,
      "Ġevidently": 5700,
      "864": 5701,
      "Ġdaily": 5702,
      "ĠWil": 5703,
      "change": 5704,
      "Ġinterp": 5705,
      "Ġbrill": 5706,
      "UN": 5707,
      "Ġshel": 5708,
      "liament": 5709,
      "Ġetern": 5710,
      "Ġprofession": 5711,
      "218": 5712,
      "far": 5713,
      "854": 5714,
      "Ġsooner": 5715,
      "874": 5716,
      "Ġlover": 5717,
      "nor": 5718,
      "Ġrefused": 5719,
      "Ġcommanded": 5720,
      "geon": 5721,
      "ana": 5722,
      "154": 5723,
      "inent": 5724,
      "ĠNational": 5725,
      "Ġwilling": 5726,
      "1993": 5727,
      "mal": 5728,
      "vest": 5729,
      "Ġconfess": 5730,
      "world": 5731,
      "Ġconnected": 5732,
      "top": 5733,
      "ighed": 5734,
      "Ġmeat": 5735,
      "Ġcelebr": 5736,
      "Ġfinger": 5737,
      "uddenly": 5738,
      "Ġta": 5739,
      "Ġfoolish": 5740,
      "thur": 5741,
      "Ġestablish": 5742,
      "Ġdesert": 5743,
      "country": 5744,
      "ITY": 5745,
      "fam": 5746,
      "itement": 5747,
      "Ġaffair": 5748,
      "Ġlarger": 5749,
      "Ġdignity": 5750,
      "arn": 5751,
      "1992": 5752,
      "Ġwants": 5753,
      "Ġdreadful": 5754,
      "ĠIts": 5755,
      "Ġdivided": 5756,
      "Ġnearer": 5757,
      "pen": 5758,
      "Ġruin": 5759,
      "outhern": 5760,
      "Ġax": 5761,
      "204": 5762,
      "890": 5763,
      "ĠJes": 5764,
      "Ġfailed": 5765,
      "anc": 5766,
      "Ġprice": 5767,
      "While": 5768,
      "hamed": 5769,
      "esides": 5770,
      "Ġant": 5771,
      "Ġcommit": 5772,
      "giv": 5773,
      "Ġdance": 5774,
      "Ġinvest": 5775,
      "Ġthroat": 5776,
      "Ġchoice": 5777,
      "Ġfellows": 5778,
      "ĠParty": 5779,
      "many": 5780,
      "Ġavail": 5781,
      "Ġskill": 5782,
      "cknow": 5783,
      "Ġbon": 5784,
      "ashing": 5785,
      "Ġimpression": 5786,
      "equ": 5787,
      "Ġweap": 5788,
      "Ġsex": 5789,
      "Ġrelief": 5790,
      "ĠAh": 5791,
      "enses": 5792,
      "];": 5793,
      "Ġ45": 5794,
      "Ġtale": 5795,
      "erson": 5796,
      "910": 5797,
      "inions": 5798,
      "Ġlest": 5799,
      "gram": 5800,
      "ama": 5801,
      "Ġweary": 5802,
      "Ġeducation": 5803,
      "Ġassured": 5804,
      "Ġcomposed": 5805,
      "ĠJan": 5806,
      "Ġcrossed": 5807,
      "ĠColonel": 5808,
      "ĠHad": 5809,
      "mond": 5810,
      "rived": 5811,
      "Ġnumbers": 5812,
      "icity": 5813,
      "sil": 5814,
      "Ġjoin": 5815,
      "210": 5816,
      "Ġthrone": 5817,
      "Ġcontact": 5818,
      "sat": 5819,
      "Ġbaby": 5820,
      "Ġmanufact": 5821,
      "yer": 5822,
      "too": 5823,
      "ago": 5824,
      "980": 5825,
      "Ġease": 5826,
      "Ġperf": 5827,
      "IB": 5828,
      "Ġceased": 5829,
      "riet": 5830,
      "ĠSpain": 5831,
      "having": 5832,
      "mitted": 5833,
      "290": 5834,
      "Ġobey": 5835,
      "ollo": 5836,
      "Ġvoy": 5837,
      "Ġanybody": 5838,
      "653": 5839,
      "iable": 5840,
      "Ġdesper": 5841,
      "Wr": 5842,
      "umpt": 5843,
      "Ġactually": 5844,
      "Ġsatisfaction": 5845,
      "Ġpred": 5846,
      "Par": 5847,
      "mi": 5848,
      "Ġshoot": 5849,
      "Ġmoments": 5850,
      "280": 5851,
      "834": 5852,
      "Ġacquaintance": 5853,
      "ĠJim": 5854,
      "Any": 5855,
      "Ġcollection": 5856,
      "DP": 5857,
      "Ġjump": 5858,
      "Ã¢": 5859,
      "pg": 5860,
      "Ġproduction": 5861,
      "Ġsche": 5862,
      "://": 5863,
      "rive": 5864,
      "Ġdefe": 5865,
      "Ġstuff": 5866,
      "Ġsalt": 5867,
      "Ġlibrary": 5868,
      "rier": 5869,
      "Ġgay": 5870,
      "Ġere": 5871,
      "Law": 5872,
      "vet": 5873,
      "Ġburied": 5874,
      "bted": 5875,
      "Ġacknow": 5876,
      "ĠRev": 5877,
      "990": 5878,
      "acles": 5879,
      "606": 5880,
      "Ġdeb": 5881,
      "****": 5882,
      "ART": 5883,
      "264": 5884,
      "atively": 5885,
      "Cl": 5886,
      "pent": 5887,
      "Ġrelations": 5888,
      "ĠCla": 5889,
      "Ġreward": 5890,
      "ĠST": 5891,
      "Ġexcited": 5892,
      "sch": 5893,
      "Ġavait": 5894,
      "Ġaffected": 5895,
      "Ġsafety": 5896,
      "Ġsheep": 5897,
      "Ġkeen": 5898,
      "Ġnecessity": 5899,
      "Ġslightly": 5900,
      "between": 5901,
      "otal": 5902,
      "Ġflying": 5903,
      "Ġpipe": 5904,
      "Ġsplendid": 5905,
      "ua": 5906,
      "Ġtext": 5907,
      "ilty": 5908,
      "ĠCont": 5909,
      "ĠDes": 5910,
      "Ã¤": 5911,
      "Ġnodd": 5912,
      "Ġwelcome": 5913,
      "Sh": 5914,
      "ailing": 5915,
      "ugh": 5916,
      "Ġorn": 5917,
      "Ġnaturally": 5918,
      "Ġheav": 5919,
      "Ġtask": 5920,
      "eyes": 5921,
      "eling": 5922,
      "Ġdistress": 5923,
      "Ġaband": 5924,
      "hus": 5925,
      "ni": 5926,
      "Ġeverybody": 5927,
      "mir": 5928,
      "ĠSu": 5929,
      "ĠBlack": 5930,
      "ĠCoun": 5931,
      "Ġpaused": 5932,
      "hael": 5933,
      "Ġham": 5934,
      "ĠMac": 5935,
      "olf": 5936,
      "Ġminds": 5937,
      "Ġinterested": 5938,
      "astern": 5939,
      "ĠBer": 5940,
      "Ġawful": 5941,
      "ĠLove": 5942,
      "Ġrefer": 5943,
      "ointment": 5944,
      "Ġrage": 5945,
      "Ġdeck": 5946,
      "Ġviolent": 5947,
      "Which": 5948,
      "kins": 5949,
      "Ġpossibly": 5950,
      "Ġcart": 5951,
      "Ġsounds": 5952,
      "Ġjealous": 5953,
      "776": 5954,
      "Ġ35": 5955,
      "mat": 5956,
      "Ġconstant": 5957,
      "Ġ``": 5958,
      "forth": 5959,
      "Ġcloth": 5960,
      "bow": 5961,
      "same": 5962,
      "367": 5963,
      "Ġpolice": 5964,
      "Ġwholly": 5965,
      "Ġheap": 5966,
      "Arch": 5967,
      "oting": 5968,
      "Ġmetal": 5969,
      "Ġobjects": 5970,
      "ĠVan": 5971,
      "Ġinstantly": 5972,
      "ĠÂ«": 5973,
      "almost": 5974,
      "electronic": 5975,
      "Ġwounded": 5976,
      "Ġimagination": 5977,
      "Ġbought": 5978,
      "arth": 5979,
      "Ġfreely": 5980,
      "Ġpublished": 5981,
      "Ġrapidly": 5982,
      "Ġhorn": 5983,
      "ĠSaint": 5984,
      "ĠHam": 5985,
      "Ġsavage": 5986,
      "775": 5987,
      "inction": 5988,
      "Ġtransl": 5989,
      "Ġaccompan": 5990,
      "Ġkitchen": 5991,
      "always": 5992,
      "owned": 5993,
      "iah": 5994,
      "Ġrecoll": 5995,
      "Ġcousin": 5996,
      "445": 5997,
      "Ġconsequence": 5998,
      "Ġindign": 5999,
      "ulse": 6000,
      "Ġdiam": 6001,
      "ador": 6002,
      "Ġexped": 6003,
      "Ġgrey": 6004,
      "Ġfaithful": 6005,
      "Ġ60": 6006,
      "Ġunfortun": 6007,
      "rub": 6008,
      "point": 6009,
      "657": 6010,
      "mcol": 6011,
      "ĠCap": 6012,
      "Ġescaped": 6013,
      "Ġequip": 6014,
      "Ġprinted": 6015,
      "Ġbul": 6016,
      "ĠLatin": 6017,
      "enes": 6018,
      "Ġamid": 6019,
      "mom": 6020,
      "ustomed": 6021,
      "Very": 6022,
      "376": 6023,
      "476": 6024,
      "Ġrunways": 6025,
      "acious": 6026,
      "gate": 6027,
      "Ġbond": 6028,
      "love": 6029,
      "eding": 6030,
      "Ġdebt": 6031,
      "orthern": 6032,
      "Ġfriendship": 6033,
      "const": 6034,
      "Ġhollow": 6035,
      "Art": 6036,
      "Illust": 6037,
      "Anat": 6038,
      "ĠMany": 6039,
      "Have": 6040,
      "Ġincreased": 6041,
      "Ġded": 6042,
      "Ġfields": 6043,
      "heard": 6044,
      "Ġrooms": 6045,
      "common": 6046,
      "Ġdozen": 6047,
      "Ġrender": 6048,
      "Ġincluded": 6049,
      "Ġthence": 6050,
      "Ġadmitted": 6051,
      "Ġdying": 6052,
      "urely": 6053,
      "hale": 6054,
      "Ġtur": 6055,
      "ĠPerhaps": 6056,
      "natural": 6057,
      "Ġpermanent": 6058,
      "pany": 6059,
      "Ġstead": 6060,
      "AND": 6061,
      "756": 6062,
      "Ġcapable": 6063,
      "ĠSat": 6064,
      "Ġdomestic": 6065,
      "ĠRE": 6066,
      "tending": 6067,
      "Ġprinciple": 6068,
      "enger": 6069,
      "acqu": 6070,
      "Lord": 6071,
      "Ġprecious": 6072,
      "Ġrocks": 6073,
      "Ġcher": 6074,
      "Ġkings": 6075,
      "Ġcompletely": 6076,
      "grace": 6077,
      "ĠAp": 6078,
      "Ġfever": 6079,
      "Ġexercise": 6080,
      "comfort": 6081,
      "!--": 6082,
      "gest": 6083,
      "uries": 6084,
      "umes": 6085,
      "Ġraise": 6086,
      "atives": 6087,
      "oft": 6088,
      "Ġretreat": 6089,
      "coll": 6090,
      "Ġarose": 6091,
      "Ġmi": 6092,
      "ĠSunday": 6093,
      "coming": 6094,
      "ĠÃ©tait": 6095,
      "Ġfeatures": 6096,
      "Ġhorror": 6097,
      "Thus": 6098,
      "Ġhoped": 6099,
      "Ġox": 6100,
      "zan": 6101,
      "ada": 6102,
      "Ġnotes": 6103,
      "ĠMag": 6104,
      "ĠGermany": 6105,
      "otton": 6106,
      "ba": 6107,
      "xed": 6108,
      "ange": 6109,
      "Ġmessage": 6110,
      "Ġaim": 6111,
      "Ġentrance": 6112,
      "Ġended": 6113,
      "Section": 6114,
      "ĠPol": 6115,
      "choly": 6116,
      "sembly": 6117,
      "pless": 6118,
      "circ": 6119,
      "Ġpreced": 6120,
      "ĠCy": 6121,
      "456": 6122,
      "May": 6123,
      "ĠEr": 6124,
      "worthy": 6125,
      "pla": 6126,
      "iddle": 6127,
      "Naut": 6128,
      "wild": 6129,
      "Ġbased": 6130,
      "ĠBet": 6131,
      "446": 6132,
      "705": 6133,
      "Ġreflect": 6134,
      "Ġbosom": 6135,
      "Ġpoison": 6136,
      "667": 6137,
      "Ġkindness": 6138,
      "Ġplaying": 6139,
      "Ġunex": 6140,
      "gent": 6141,
      "Ġrope": 6142,
      "607": 6143,
      "Ġice": 6144,
      "ldom": 6145,
      "ĠDec": 6146,
      "755": 6147,
      "Ġpressed": 6148,
      "ĠProfessor": 6149,
      "Ġkindly": 6150,
      "Ġstairs": 6151,
      "Ġlocal": 6152,
      "ĠMe": 6153,
      "ician": 6154,
      "Ġfought": 6155,
      "Ġcompass": 6156,
      "Ġ28": 6157,
      "ĠSea": 6158,
      "UTEN": 6159,
      "Ġabroad": 6160,
      "John": 6161,
      "tri": 6162,
      "Ġshield": 6163,
      "364": 6164,
      "white": 6165,
      "cribed": 6166,
      "Ġcult": 6167,
      "Ġdistributed": 6168,
      "Ã´": 6169,
      "336": 6170,
      "666": 6171,
      "force": 6172,
      "Ġsinging": 6173,
      "Ġblock": 6174,
      "Ġhoriz": 6175,
      "Ġbien": 6176,
      "ĠGoth": 6177,
      "Ġvision": 6178,
      "Ġdawn": 6179,
      "Ġ}": 6180,
      "Ġpan": 6181,
      "Ġstore": 6182,
      "bour": 6183,
      "sey": 6184,
      "Ġdischar": 6185,
      "zing": 6186,
      "ĠPrincess": 6187,
      "Ġinquir": 6188,
      "ino": 6189,
      "JECT": 6190,
      "455": 6191,
      "Ġgenius": 6192,
      "ARR": 6193,
      "ourable": 6194,
      "ological": 6195,
      "ĠCity": 6196,
      "een": 6197,
      "Ġtight": 6198,
      "Ġlust": 6199,
      "Ġnovel": 6200,
      "win": 6201,
      "Ġdelicate": 6202,
      "BERG": 6203,
      "Ġnous": 6204,
      "eous": 6205,
      "Ġwhence": 6206,
      "Ġprevious": 6207,
      "ements": 6208,
      "603": 6209,
      "ustry": 6210,
      "Ġmistake": 6211,
      "ober": 6212,
      "rage": 6213,
      "Ġclouds": 6214,
      "ĠNever": 6215,
      "Ġ29": 6216,
      "ography": 6217,
      "draw": 6218,
      "Ġclos": 6219,
      "Ġseparate": 6220,
      "001": 6221,
      "405": 6222,
      "retch": 6223,
      "Ġmanif": 6224,
      "Ġtriumph": 6225,
      "Ġtheory": 6226,
      "Ġimmense": 6227,
      "Ġapproach": 6228,
      "seemed": 6229,
      "Ġinnocent": 6230,
      "Ġservices": 6231,
      "Ġavec": 6232,
      "ĠVen": 6233,
      "shi": 6234,
      "Ġmel": 6235,
      "ĠLouis": 6236,
      "urity": 6237,
      "Ġstands": 6238,
      "Ġindul": 6239,
      "Ġcompanions": 6240,
      "Ġcattle": 6241,
      "706": 6242,
      "Ġmonarch": 6243,
      "Ġadmit": 6244,
      "Ġgently": 6245,
      "person": 6246,
      "agree": 6247,
      "Ġguide": 6248,
      "ARD": 6249,
      "ĠMc": 6250,
      "Ġtells": 6251,
      "Ġuseful": 6252,
      "Ġcounsel": 6253,
      "Ġunderstanding": 6254,
      "Ġkissed": 6255,
      "306": 6256,
      "sa": 6257,
      "Ġflame": 6258,
      "Ġprisoner": 6259,
      "era": 6260,
      "ĠFOR": 6261,
      "Ġpermitted": 6262,
      "Car": 6263,
      "rounded": 6264,
      "Min": 6265,
      "hend": 6266,
      "armed": 6267,
      "Ġclosely": 6268,
      "Ġassist": 6269,
      "Ġdeeply": 6270,
      "Ġprepare": 6271,
      "Ġpause": 6272,
      "Ġimage": 6273,
      "apan": 6274,
      "altsp": 6275,
      "ville": 6276,
      "Ġaccounts": 6277,
      "Ġdeliver": 6278,
      "Ġgradually": 6279,
      "Ġinhabitants": 6280,
      ",)": 6281,
      "Ġrequest": 6282,
      "Ġvolunteers": 6283,
      "reck": 6284,
      "Ġproportion": 6285,
      "Ġlimited": 6286,
      "Ġcommitted": 6287,
      "reed": 6288,
      "gue": 6289,
      "ĠAre": 6290,
      "reason": 6291,
      "Ġhell": 6292,
      "335": 6293,
      "Ġunable": 6294,
      "Ġblessed": 6295,
      "Ġtrad": 6296,
      "Ġinstruct": 6297,
      "Ġxx": 6298,
      "Ġcuriosity": 6299,
      "Ġfrightened": 6300,
      "dep": 6301,
      "OF": 6302,
      "Ġcaut": 6303,
      "ĠCam": 6304,
      "aux": 6305,
      "Ġanywhere": 6306,
      "ĠPort": 6307,
      "Ġrang": 6308,
      "305": 6309,
      "Ġvictory": 6310,
      "Ġamongst": 6311,
      "355": 6312,
      "tes": 6313,
      "Ġreader": 6314,
      "Ġretired": 6315,
      "_;": 6316,
      "407": 6317,
      "Ġdelivered": 6318,
      "Ġ90": 6319,
      "Thou": 6320,
      "inces": 6321,
      "Ġvague": 6322,
      "Ġpil": 6323,
      "Ġmilk": 6324,
      "utch": 6325,
      "cia": 6326,
      "Ġvoices": 6327,
      "Ġresour": 6328,
      "Ġends": 6329,
      "Ġwaste": 6330,
      "Ġlocated": 6331,
      "ĠPresident": 6332,
      "Just": 6333,
      "ero": 6334,
      "Ġrust": 6335,
      "ĠDid": 6336,
      "447": 6337,
      "Ġbranches": 6338,
      "Ġnerv": 6339,
      "ĠSec": 6340,
      "Ġincrease": 6341,
      "AY": 6342,
      "VI": 6343,
      "consider": 6344,
      "ĠGUTEN": 6345,
      "ĠGUTENBERG": 6346,
      "fice": 6347,
      "Ġfil": 6348,
      "Ġchest": 6349,
      "themselves": 6350,
      "Ġwretched": 6351,
      "777": 6352,
      "356": 6353,
      "Ġderived": 6354,
      "olas": 6355,
      "Ġconsult": 6356,
      "tem": 6357,
      "ĠTar": 6358,
      "Ġunhappy": 6359,
      "rice": 6360,
      "ĠFrank": 6361,
      "oir": 6362,
      "Ġcondem": 6363,
      "363": 6364,
      "urance": 6365,
      "463": 6366,
      "Ġcette": 6367,
      "Ġtom": 6368,
      "Ġhistor": 6369,
      "ĠAust": 6370,
      "ĠOnly": 6371,
      "406": 6372,
      "Ġparents": 6373,
      "Ġprinciples": 6374,
      "Ġintroduced": 6375,
      "Ġinterrupted": 6376,
      "Ġconven": 6377,
      "Ġdistribute": 6378,
      "Ġze": 6379,
      "Ġelder": 6380,
      "Ġissu": 6381,
      "rap": 6382,
      "Ġglanced": 6383,
      "OOK": 6384,
      "Ġdisease": 6385,
      "oused": 6386,
      "Ġmiserable": 6387,
      "Ġinstinct": 6388,
      "Written": 6389,
      "loc": 6390,
      "uable": 6391,
      "verted": 6392,
      "cker": 6393,
      "Ġprospect": 6394,
      "Ġconvey": 6395,
      "Ġestate": 6396,
      "urse": 6397,
      "Ġprompt": 6398,
      "Ġexcess": 6399,
      "ĠPROJECT": 6400,
      "oseph": 6401,
      "757": 6402,
      "sent": 6403,
      "Ġequipment": 6404,
      "Never": 6405,
      "Ġthroughout": 6406,
      "Ġfriendly": 6407,
      "Ġswell": 6408,
      "Ġopposed": 6409,
      "Ġmild": 6410,
      "Ġgent": 6411,
      "Ġbeha": 6412,
      "tte": 6413,
      "443": 6414,
      "Pref": 6415,
      "Ġconscience": 6416,
      "pat": 6417,
      "ĠCons": 6418,
      "467": 6419,
      "Ġrights": 6420,
      "Ġhit": 6421,
      "Ġarrival": 6422,
      "Ġshouted": 6423,
      "Ġmechan": 6424,
      "Ġshade": 6425,
      "Ġegg": 6426,
      "Ġintention": 6427,
      "Ġcas": 6428,
      "requ": 6429,
      "stead": 6430,
      "cember": 6431,
      "307": 6432,
      "ĠLittle": 6433,
      "Ġpatient": 6434,
      "ĠSus": 6435,
      "Ġsmell": 6436,
      "loved": 6437,
      "Ġ(?);": 6438,
      "Ġsilk": 6439,
      "Ġerect": 6440,
      "Ġneeded": 6441,
      "Ġthunder": 6442,
      "Ġstared": 6443,
      "753": 6444,
      "Ġric": 6445,
      "373": 6446,
      "ĠHolmes": 6447,
      "itated": 6448,
      "Ġlikewise": 6449,
      "ĠWhich": 6450,
      "Ġprayer": 6451,
      "654": 6452,
      "604": 6453,
      "grat": 6454,
      "inity": 6455,
      "orus": 6456,
      "Ġemotion": 6457,
      "ief": 6458,
      "rian": 6459,
      "ĠCast": 6460,
      "Ġfairly": 6461,
      "dr": 6462,
      "soever": 6463,
      "703": 6464,
      "also": 6465,
      "Ġchosen": 6466,
      "OS": 6467,
      "Ġslept": 6468,
      "Ġhidden": 6469,
      "Ġhint": 6470,
      "Ġpref": 6471,
      "ĠArthur": 6472,
      "ovember": 6473,
      "care": 6474,
      "Ġaddressed": 6475,
      "Ġcollect": 6476,
      "La": 6477,
      "Â·": 6478,
      "ills": 6479,
      "Ġquel": 6480,
      "ĠOcean": 6481,
      "ifying": 6482,
      "Ġpartly": 6483,
      "Ġascend": 6484,
      "Ġtrial": 6485,
      "Ġchiefly": 6486,
      "Ġlux": 6487,
      "Ġrushed": 6488,
      "ĠTwo": 6489,
      "Ġreplace": 6490,
      "Ġviolence": 6491,
      "gentle": 6492,
      "Ġshining": 6493,
      "Ġarranged": 6494,
      "663": 6495,
      "Ġexperien": 6496,
      "Ġdefend": 6497,
      "edy": 6498,
      "457": 6499,
      "Ġstruggle": 6500,
      "Ġslain": 6501,
      "iate": 6502,
      "ertaining": 6503,
      "Ġsovereign": 6504,
      "Ġhousehold": 6505,
      "iner": 6506,
      "ena": 6507,
      "Ġspl": 6508,
      "Ġashamed": 6509,
      "Ġep": 6510,
      "754": 6511,
      "Ġahead": 6512,
      "Ġcig": 6513,
      "Ġspark": 6514,
      "Ġgranted": 6515,
      "Ġavoid": 6516,
      "ĠPeople": 6517,
      "Ġfame": 6518,
      "quar": 6519,
      "ulgar": 6520,
      "337": 6521,
      "comple": 6522,
      "Ġsprang": 6523,
      "Ġhole": 6524,
      "773": 6525,
      "orse": 6526,
      "cip": 6527,
      "Ġteach": 6528,
      "allow": 6529,
      "Ġapparently": 6530,
      "Ġlamp": 6531,
      "Ġrespons": 6532,
      "Ġdish": 6533,
      "aughters": 6534,
      "Ġfigures": 6535,
      "ĠCHAPTER": 6536,
      "taken": 6537,
      "ĠCON": 6538,
      "ĠBell": 6539,
      "sign": 6540,
      "Ġoath": 6541,
      "Ġmatch": 6542,
      "353": 6543,
      "Ġmarket": 6544,
      "appro": 6545,
      "iii": 6546,
      "Ġclever": 6547,
      "perhaps": 6548,
      "Ġdogs": 6549,
      "Ġod": 6550,
      "1994": 6551,
      "Ġconsent": 6552,
      "Ġpicked": 6553,
      "utive": 6554,
      "quet": 6555,
      "osure": 6556,
      "Ġwhisper": 6557,
      "Look": 6558,
      "ĠPh": 6559,
      "ording": 6560,
      "ĠIII": 6561,
      "Ġrum": 6562,
      "Ġexcuse": 6563,
      "Ġcorrupt": 6564,
      "Ġstories": 6565,
      "Ġneeds": 6566,
      "Br": 6567,
      "Ġlone": 6568,
      "Ġuncertain": 6569,
      "olution": 6570,
      "ĠTHIS": 6571,
      "yard": 6572,
      "Ġpier": 6573,
      "urg": 6574,
      "Ġceremon": 6575,
      "Our": 6576,
      "osal": 6577,
      "present": 6578,
      "dem": 6579,
      "Ġsed": 6580,
      "Ġcla": 6581,
      "473": 6582,
      "Ġobserve": 6583,
      "ĠTe": 6584,
      "Ġgained": 6585,
      "Ġrelated": 6586,
      "onia": 6587,
      "mean": 6588,
      "tow": 6589,
      "Ġnational": 6590,
      "ĠFair": 6591,
      "Ġpaying": 6592,
      "Ġdreams": 6593,
      "Ġses": 6594,
      "prise": 6595,
      "Ġgest": 6596,
      "ĠEdward": 6597,
      "Ġmud": 6598,
      "Ġyard": 6599,
      "ĠPet": 6600,
      "Ġasking": 6601,
      "Ġwarri": 6602,
      "Ġemer": 6603,
      "Ġhaste": 6604,
      "hab": 6605,
      "Ġsuffering": 6606,
      "Ġmerchant": 6607,
      "Ġcompre": 6608,
      "Ġsupply": 6609,
      "Ġknife": 6610,
      "arded": 6611,
      "aks": 6612,
      "Ġrelation": 6613,
      "fortune": 6614,
      "isp": 6615,
      "Ġremind": 6616,
      "707": 6617,
      "Ġfifteen": 6618,
      "others": 6619,
      "Ġfeared": 6620,
      "IES": 6621,
      "Ġwondered": 6622,
      "Ġmedic": 6623,
      "arted": 6624,
      "Ġscorn": 6625,
      "ĠMat": 6626,
      "dou": 6627,
      "ĠLike": 6628,
      "Ġspend": 6629,
      "ĠAlexander": 6630,
      "Ġenergy": 6631,
      "alem": 6632,
      "Ġmarch": 6633,
      "Ġshr": 6634,
      "Ġforehead": 6635,
      "Ġwaves": 6636,
      "Ġcel": 6637,
      "ĠCath": 6638,
      "._]": 6639,
      "Ġ00": 6640,
      "Ġvac": 6641,
      "Ġcareful": 6642,
      "Ġcontrol": 6643,
      "Ġjew": 6644,
      "ĠMajesty": 6645,
      "Ġtrembling": 6646,
      "Ġconfusion": 6647,
      "Ġlaughter": 6648,
      "Ġstepped": 6649,
      "vous": 6650,
      "374": 6651,
      "orial": 6652,
      "Ġ(#": 6653,
      "333": 6654,
      "Ġsoftly": 6655,
      "oh": 6656,
      "Ġsell": 6657,
      "ĠPat": 6658,
      "Ġresembling": 6659,
      "Ġproposed": 6660,
      "ĠBefore": 6661,
      "Ġbree": 6662,
      "omatic": 6663,
      "Ġexhaust": 6664,
      "Ġadj": 6665,
      "Ġexcitement": 6666,
      "Ġcryst": 6667,
      "Ġmais": 6668,
      "357": 6669,
      "Ġarmed": 6670,
      "ĠSal": 6671,
      "Ġbecomes": 6672,
      "usual": 6673,
      "Ġ|": 6674,
      "ĠIcel": 6675,
      "irmed": 6676,
      "anything": 6677,
      "Ġaltern": 6678,
      "Ġyards": 6679,
      "EAR": 6680,
      "Ġsie": 6681,
      "Ġbones": 6682,
      "304": 6683,
      "ĠAlso": 6684,
      "free": 6685,
      "Ġdiscourse": 6686,
      "Ġhelped": 6687,
      "Ġabsolutely": 6688,
      "ĠĊ": 6689,
      "664": 6690,
      "Ġcontribut": 6691,
      "Ã®": 6692,
      "Ġenthus": 6693,
      "Ġcauses": 6694,
      "cence": 6695,
      "Ġwing": 6696,
      "Ġmelan": 6697,
      "Ġdelay": 6698,
      "lope": 6699,
      "Ġreasons": 6700,
      "Ġcheeks": 6701,
      "hind": 6702,
      "once": 6703,
      "usive": 6704,
      "Ġstout": 6705,
      "Ġfeast": 6706,
      "Ġtow": 6707,
      "ountain": 6708,
      "mus": 6709,
      "Ġadditional": 6710,
      "cut": 6711,
      "atherine": 6712,
      "Ġintellectual": 6713,
      "maid": 6714,
      "453": 6715,
      "303": 6716,
      "Ġconvinced": 6717,
      "Ġmortal": 6718,
      "704": 6719,
      "Ġdil": 6720,
      "Ġperceived": 6721,
      "Ġvessels": 6722,
      "Ġbecoming": 6723,
      "ĠWal": 6724,
      "Ã§": 6725,
      "Ġgift": 6726,
      "ums": 6727,
      "ieu": 6728,
      "Ġaccompanied": 6729,
      "Ġstrict": 6730,
      "Ġghost": 6731,
      "oute": 6732,
      "mosp": 6733,
      "403": 6734,
      "Ġconsideration": 6735,
      "Ġanti": 6736,
      "Ġpin": 6737,
      "Co": 6738,
      "ĠDoctor": 6739,
      "ĠCouncil": 6740,
      "Ġnoon": 6741,
      "ĠMartin": 6742,
      "ĠSpanish": 6743,
      "owder": 6744,
      "ibus": 6745,
      "Ġextremely": 6746,
      "business": 6747,
      "Ġrequirements": 6748,
      "Ġmood": 6749,
      "Ġsurv": 6750,
      "Ġjoint": 6751,
      "Ġadminist": 6752,
      "Ġvisible": 6753,
      "Ġroot": 6754,
      "Ġgard": 6755,
      "Ġbrothers": 6756,
      "uv": 6757,
      "ĠWestern": 6758,
      "464": 6759,
      "Ġproblem": 6760,
      "Ġrules": 6761,
      "ĠDar": 6762,
      "Col": 6763,
      "real": 6764,
      "years": 6765,
      "Man": 6766,
      "urbed": 6767,
      "uns": 6768,
      ":âĢĶ": 6769,
      "Ġleaf": 6770,
      "eration": 6771,
      "Ġinformed": 6772,
      "Ġonline": 6773,
      "Ġperformed": 6774,
      "Ġforces": 6775,
      "Ġconcerned": 6776,
      "burg": 6777,
      "Ġfleet": 6778,
      "Ġbeheld": 6779,
      "Ġgrim": 6780,
      "434": 6781,
      "axim": 6782,
      "ĠNich": 6783,
      "Ġsouls": 6784,
      "Ġfatal": 6785,
      "rical": 6786,
      "Sw": 6787,
      "Ġdevoted": 6788,
      "inger": 6789,
      "Ġ100": 6790,
      "Ġtreated": 6791,
      "Ġamuse": 6792,
      "Ġthanks": 6793,
      "Ġregret": 6794,
      "cluding": 6795,
      "Ġsympathy": 6796,
      "Ġfile": 6797,
      "Ġmurmured": 6798,
      "Ġperpet": 6799,
      "expl": 6800,
      "444": 6801,
      "Ġhotel": 6802,
      "ĠNOT": 6803,
      "pglaf": 6804,
      "iciently": 6805,
      "moment": 6806,
      "Ġsacrifice": 6807,
      "Ġcries": 6808,
      "Ġexpense": 6809,
      "Ġaspect": 6810,
      "osa": 6811,
      "Ġcompliance": 6812,
      "Ġelectric": 6813,
      "ĠSer": 6814,
      "Ġbla": 6815,
      "myself": 6816,
      "erate": 6817,
      "Ġthinks": 6818,
      "Ġcounter": 6819,
      "Ġsang": 6820,
      "respect": 6821,
      "ache": 6822,
      "ĠThough": 6823,
      "Pe": 6824,
      "474": 6825,
      "ĠRepublic": 6826,
      "epend": 6827,
      "home": 6828,
      "Ġdistrict": 6829,
      "Ġapproached": 6830,
      "Ġscattered": 6831,
      "Every": 6832,
      "Ġsore": 6833,
      "Ġlat": 6834,
      "Ġguilty": 6835,
      "Ġflood": 6836,
      "Ġlearning": 6837,
      "ĠRomans": 6838,
      "yet": 6839,
      "ilst": 6840,
      "ĠBra": 6841,
      "Ġquarrel": 6842,
      "Ġshowing": 6843,
      "Ġassistance": 6844,
      "exc": 6845,
      "ola": 6846,
      "Ġinclined": 6847,
      "sal": 6848,
      "Ġprepar": 6849,
      "Ġblame": 6850,
      "Ġconsisting": 6851,
      "Ġfighting": 6852,
      "Ġyounger": 6853,
      "Perhaps": 6854,
      "Ġmile": 6855,
      "ĠUp": 6856,
      "table": 6857,
      "Ã³": 6858,
      "loom": 6859,
      "Ġscream": 6860,
      "aly": 6861,
      "ĠItalian": 6862,
      "entions": 6863,
      "Ġstiff": 6864,
      "Ġwishes": 6865,
      "ĠElizabeth": 6866,
      "ras": 6867,
      "Ġseldom": 6868,
      "ĠHim": 6869,
      "alph": 6870,
      "Ġtelephone": 6871,
      "Ġbelonging": 6872,
      "Ġquantity": 6873,
      "ĠEarl": 6874,
      "Ġspare": 6875,
      "Ġmental": 6876,
      "Ġadventure": 6877,
      "Ġmelancholy": 6878,
      "Ġstaff": 6879,
      "Ġstruct": 6880,
      "iana": 6881,
      "Ġinfer": 6882,
      "Ġmisery": 6883,
      "Ġlabour": 6884,
      "ĠHarry": 6885,
      "Ġrese": 6886,
      "Ġsite": 6887,
      "Ġcomme": 6888,
      "Ġstupid": 6889,
      "igent": 6890,
      "Ġuniversal": 6891,
      "asions": 6892,
      "riot": 6893,
      "Ġhadn": 6894,
      "Ġroll": 6895,
      "Ġdisappeared": 6896,
      "Ġprivile": 6897,
      "Ã²": 6898,
      "Ġbringing": 6899,
      "Ġsoil": 6900,
      "Ġrig": 6901,
      "Ġwriter": 6902,
      "Ġinfinite": 6903,
      "Ġeste": 6904,
      "ka": 6905,
      "Ġlights": 6906,
      "Ġtemple": 6907,
      "ocratic": 6908,
      "Ġdevelopment": 6909,
      "Ġarticle": 6910,
      "Ġblank": 6911,
      "Ġfaire": 6912,
      "IX": 6913,
      "ĠLand": 6914,
      "Ġfollows": 6915,
      "Ġacts": 6916,
      "Ġflew": 6917,
      "Ġcam": 6918,
      "Ġolder": 6919,
      "turned": 6920,
      "coat": 6921,
      "Ġthereof": 6922,
      "ferences": 6923,
      "Ġstriking": 6924,
      "Ġcrying": 6925,
      "Ġdar": 6926,
      "riculture": 6927,
      "Su": 6928,
      "ĠDay": 6929,
      "Ġtroubled": 6930,
      "Ġcott": 6931,
      "Ġhers": 6932,
      "Ġintelligence": 6933,
      "ouch": 6934,
      "children": 6935,
      "arly": 6936,
      "cribe": 6937,
      "Ġignorant": 6938,
      "ĠBab": 6939,
      "774": 6940,
      "usalem": 6941,
      "thren": 6942,
      "vious": 6943,
      "ĠWood": 6944,
      "bi": 6945,
      "Ġprud": 6946,
      "Ġsuspicion": 6947,
      "Ġsetting": 6948,
      "arrass": 6949,
      "rick": 6950,
      "stitution": 6951,
      "Ġdirected": 6952,
      "ĠMonsieur": 6953,
      "334": 6954,
      "Ġhumble": 6955,
      "istribut": 6956,
      "Ġplenty": 6957,
      "umm": 6958,
      "Ġstretched": 6959,
      "Ġsentiment": 6960,
      "yes": 6961,
      "ĠLucy": 6962,
      "ype": 6963,
      "Ġbutter": 6964,
      "ga": 6965,
      "Ġprofound": 6966,
      "404": 6967,
      "Ġocean": 6968,
      "Ġattended": 6969,
      "gener": 6970,
      "saw": 6971,
      "Ġindustry": 6972,
      "Ġpig": 6973,
      "better": 6974,
      "Ġfinal": 6975,
      "ĠAdam": 6976,
      "Ġmankind": 6977,
      "racters": 6978,
      "Ġagreeable": 6979,
      "ĠJe": 6980,
      "Ġming": 6981,
      "Ġvolume": 6982,
      "002": 6983,
      "Ġkinds": 6984,
      "Ġprosper": 6985,
      "writ": 6986,
      "Ġlake": 6987,
      "Ġcheek": 6988,
      "Ġdece": 6989,
      "ĠĠĠĠĠĠĠĠĠĠ": 6990,
      "Ġsomewhere": 6991,
      "quite": 6992,
      "Ġduties": 6993,
      "uer": 6994,
      "Ġregion": 6995,
      "Ġflag": 6996,
      "elf": 6997,
      "next": 6998,
      "ĠJapan": 6999,
      "Ġcoal": 7000,
      "Ġdisposition": 7001,
      "olt": 7002,
      "ĠIslands": 7003,
      "ATION": 7004,
      "ĠInformation": 7005,
      "Ġcentre": 7006,
      "Ġarrest": 7007,
      "pi": 7008,
      "Ġveget": 7009,
      "Ġpurple": 7010,
      "Ġgreet": 7011,
      "ĠFer": 7012,
      "Ġremove": 7013,
      "Ġdisclaim": 7014,
      "www": 7015,
      "Ġconnection": 7016,
      "among": 7017,
      "cientific": 7018,
      "stre": 7019,
      "Ġdescription": 7020,
      "ĠJesus": 7021,
      "liness": 7022,
      "Ġgla": 7023,
      "Ġrolled": 7024,
      "Mac": 7025,
      "Ġbowed": 7026,
      "Ġplainly": 7027,
      "alks": 7028,
      "Ġcu": 7029,
      "ĠMark": 7030,
      "beaut": 7031,
      "Ġcontinue": 7032,
      "Ġmagnific": 7033,
      "Ġnodded": 7034,
      "thy": 7035,
      "Ġtrop": 7036,
      "Ġseed": 7037,
      "Ġholder": 7038,
      "Ġsigns": 7039,
      "Ġtent": 7040,
      "Ġrendered": 7041,
      "354": 7042,
      "dig": 7043,
      "dec": 7044,
      "din": 7045,
      "Ġrude": 7046,
      "Ġacquainted": 7047,
      "UM": 7048,
      "Ġexchange": 7049,
      "Ġga": 7050,
      "alls": 7051,
      "Ġwooden": 7052,
      "Ġdelighted": 7053,
      "unted": 7054,
      "Ġanxiety": 7055,
      "Spenser": 7056,
      "morning": 7057,
      "find": 7058,
      "Ġangel": 7059,
      "Ġalter": 7060,
      "Ġenorm": 7061,
      "Ġtort": 7062,
      "lla": 7063,
      "Em": 7064,
      "otted": 7065,
      "Ġargument": 7066,
      "uce": 7067,
      "uts": 7068,
      "ĠChan": 7069,
      "alog": 7070,
      "Ġ(-": 7071,
      "Ġadmiration": 7072,
      "ĠLife": 7073,
      "ĠGra": 7074,
      "Ġobsc": 7075,
      "\"-": 7076,
      "Ġfeather": 7077,
      "inen": 7078,
      "ĠGre": 7079,
      "ben": 7080,
      "lord": 7081,
      "ĠBE": 7082,
      "Ġgates": 7083,
      "concer": 7084,
      "itud": 7085,
      "ĠNat": 7086,
      "Ġnarr": 7087,
      "pol": 7088,
      "inqu": 7089,
      "Ġthread": 7090,
      "Ġmead": 7091,
      "Ġprofit": 7092,
      "Ġhurry": 7093,
      "riv": 7094,
      "Ġcapacity": 7095,
      "Such": 7096,
      "orable": 7097,
      "Ġtrack": 7098,
      "Ġdiscovery": 7099,
      "Ġbottle": 7100,
      "enny": 7101,
      "ĠSim": 7102,
      "leness": 7103,
      "venue": 7104,
      "ĠANY": 7105,
      "Ġlicense": 7106,
      "Ne": 7107,
      "etic": 7108,
      "thos": 7109,
      "asted": 7110,
      "Ġunion": 7111,
      "Ġabsurd": 7112,
      "!âĢĶ": 7113,
      "ustrial": 7114,
      "both": 7115,
      "Ġimpress": 7116,
      "Ġgenerous": 7117,
      "IP": 7118,
      "454": 7119,
      "Ġinsult": 7120,
      "Ġrepresented": 7121,
      "ĠĠĠĠĠĠĠĠĠĠĠĠĠĠĠĠĠĠĠĠĠ": 7122,
      "Ġ182": 7123,
      "Ġslaves": 7124,
      "âĢĲ": 7125,
      "Ġmystery": 7126,
      "ea": 7127,
      "stri": 7128,
      "ĠIsland": 7129,
      "Ġuttered": 7130,
      "Yet": 7131,
      "ĠGDP": 7132,
      "Ġpractical": 7133,
      "enough": 7134,
      "illing": 7135,
      "ĠLong": 7136,
      "Ġ?": 7137,
      "Ġcharming": 7138,
      "Christ": 7139,
      "ĠMichael": 7140,
      "stru": 7141,
      "Fl": 7142,
      "exper": 7143,
      "agnan": 7144,
      "Ġpursued": 7145,
      "ĠBert": 7146,
      "Ġnewsp": 7147,
      "girl": 7148,
      "tor": 7149,
      "igation": 7150,
      "Ġspake": 7151,
      "Ġrear": 7152,
      "ĠDIS": 7153,
      "Ġbrilliant": 7154,
      "ĠJoseph": 7155,
      "Ġclaims": 7156,
      "Ġpunishment": 7157,
      "bridge": 7158,
      "Ġimprove": 7159,
      "Ġspecific": 7160,
      "ando": 7161,
      "Ġvic": 7162,
      "Ġgazed": 7163,
      "Ġsom": 7164,
      "Ġcomfortable": 7165,
      "Ġrecomm": 7166,
      "Ġdisplaying": 7167,
      "mbass": 7168,
      "ĠSk": 7169,
      "Ġrow": 7170,
      "Ġreturning": 7171,
      "Ġfourth": 7172,
      "urst": 7173,
      "Ġdrunk": 7174,
      "aph": 7175,
      "Ġglorious": 7176,
      "Ġextended": 7177,
      "Ġassumed": 7178,
      "Artagnan": 7179,
      "Ġuniform": 7180,
      "Ġcreatures": 7181,
      "cus": 7182,
      "Ġpressure": 7183,
      "inus": 7184,
      "Ġmerit": 7185,
      "nds": 7186,
      "Ġaloud": 7187,
      "Ġtear": 7188,
      "Ġlistening": 7189,
      "dif": 7190,
      "Ġbark": 7191,
      "Ġpist": 7192,
      "ĠIre": 7193,
      "aints": 7194,
      "ĠHave": 7195,
      "Ġawait": 7196,
      "ĠPark": 7197,
      "008": 7198,
      "super": 7199,
      "iot": 7200,
      "Ġaffl": 7201,
      "Ġprinces": 7202,
      "question": 7203,
      "Ġrefuse": 7204,
      "black": 7205,
      "Ġwhenever": 7206,
      "Ġnaked": 7207,
      "Ġshake": 7208,
      "sole": 7209,
      "atched": 7210,
      "Ġbrow": 7211,
      "Ġmysterious": 7212,
      "ĠOctober": 7213,
      "ĠRobin": 7214,
      "Ġunexpected": 7215,
      "ipt": 7216,
      "anny": 7217,
      "rad": 7218,
      "Ġevident": 7219,
      "Ġhanging": 7220,
      "ĠChe": 7221,
      "ĠNov": 7222,
      "ĠTherefore": 7223,
      "success": 7224,
      "ĠUnion": 7225,
      "Ġgaze": 7226,
      "Ġcontained": 7227,
      "Ġchain": 7228,
      "Ġformat": 7229,
      "mination": 7230,
      "Ġunfortunate": 7231,
      "Ġcomputer": 7232,
      "Ma": 7233,
      "ĠFar": 7234,
      "ĠKnight": 7235,
      "Ġchose": 7236,
      "covered": 7237,
      "Ġgi": 7238,
      "ĠMex": 7239,
      "Ġposted": 7240,
      "ctions": 7241,
      "Ġshows": 7242,
      "Ġ55": 7243,
      "Ġpages": 7244,
      "ĠBilly": 7245,
      "Ġspiritual": 7246,
      "Ġsenses": 7247,
      "icle": 7248,
      "ĠBill": 7249,
      "767": 7250,
      "Ġweakness": 7251,
      "AV": 7252,
      "Ġattract": 7253,
      "Ġsource": 7254,
      "sl": 7255,
      "Ġimpl": 7256,
      "Ġbetr": 7257,
      "oral": 7258,
      "ropri": 7259,
      "Ã©n": 7260,
      "ARRANT": 7261,
      "Ġsmaller": 7262,
      "ĠAlice": 7263,
      "ĠFirst": 7264,
      "Ġsomebody": 7265,
      "ĠEmperor": 7266,
      "ĠAtl": 7267,
      "Ġtempor": 7268,
      "Ġprincess": 7269,
      "Ġfolk": 7270,
      "Ġfears": 7271,
      "hearted": 7272,
      "Ġdestroyed": 7273,
      "Ġcultiv": 7274,
      "ĠThose": 7275,
      "Ġcaval": 7276,
      "vals": 7277,
      "herself": 7278,
      "Ġbreaking": 7279,
      "dest": 7280,
      "ĠFort": 7281,
      "Ġindic": 7282,
      "ĠMen": 7283,
      "Ġrecon": 7284,
      "asket": 7285,
      "Ġborne": 7286,
      "Ġagent": 7287,
      "ĠBesides": 7288,
      "tee": 7289,
      "itures": 7290,
      "Ã»": 7291,
      "Ġpushed": 7292,
      "ĠGreen": 7293,
      "Ġsurrounded": 7294,
      "Ġcalls": 7295,
      "âĢľâĢĺ": 7296,
      "Ġhorrible": 7297,
      "hands": 7298,
      "Ġenjoyed": 7299,
      "Ġdeparted": 7300,
      "Ġflour": 7301,
      "fire": 7302,
      "ÃŃ": 7303,
      "Ġflung": 7304,
      "Ġmultitude": 7305,
      "Ġrot": 7306,
      "Ġtreasure": 7307,
      "mosphere": 7308,
      "Ġdivisions": 7309,
      "Ġdeparture": 7310,
      "ĠSol": 7311,
      "Ġterrit": 7312,
      "oked": 7313,
      "ighting": 7314,
      "ĠDom": 7315,
      "Ġdivision": 7316,
      "Ġappreci": 7317,
      "Ġecho": 7318,
      "chn": 7319,
      "ĠEs": 7320,
      ">&": 7321,
      "mouth": 7322,
      "ĠDef": 7323,
      "Ġcouncil": 7324,
      "Ġconclusion": 7325,
      "Ġthither": 7326,
      "anda": 7327,
      "Ġlighted": 7328,
      "Ġrent": 7329,
      "].": 7330,
      "Rose": 7331,
      "Ġfran": 7332,
      "sea": 7333,
      "gging": 7334,
      "brought": 7335,
      "Ġinterests": 7336,
      "zo": 7337,
      "Ġdaughters": 7338,
      "Ġexhib": 7339,
      "Ġages": 7340,
      "Ġturns": 7341,
      "Ġcharm": 7342,
      "gone": 7343,
      "aine": 7344,
      "Ġutmost": 7345,
      "left": 7346,
      "Ġforgive": 7347,
      "Ġissue": 7348,
      "ĠAng": 7349,
      "ĠMother": 7350,
      "Prov": 7351,
      "Ġmounted": 7352,
      "ĠSeptember": 7353,
      "ĠMil": 7354,
      "Ġstandard": 7355,
      "Ġtorn": 7356,
      "weet": 7357,
      "nde": 7358,
      "Ġshell": 7359,
      "Ġalarm": 7360,
      "Ġmagist": 7361,
      "Ġaccustomed": 7362,
      "Ġloving": 7363,
      "six": 7364,
      "Ġleis": 7365,
      "HG": 7366,
      "Ġwhist": 7367,
      "umption": 7368,
      "Ġlinks": 7369,
      "amm": 7370,
      "Ġbeasts": 7371,
      "Ġoffering": 7372,
      "Tis": 7373,
      "Ġremaining": 7374,
      "Ġwave": 7375,
      "Ġteacher": 7376,
      "hast": 7377,
      "done": 7378,
      "crete": 7379,
      "regular": 7380,
      "ĠNovember": 7381,
      "tains": 7382,
      "Ġstair": 7383,
      "apa": 7384,
      "matter": 7385,
      "Ġattitude": 7386,
      "Ġhabits": 7387,
      "Ġproducts": 7388,
      "Mon": 7389,
      "009": 7390,
      "Ġparted": 7391,
      "763": 7392,
      "othy": 7393,
      "ĠHoly": 7394,
      "Ġillust": 7395,
      "Ġjob": 7396,
      "particular": 7397,
      "Ġhastily": 7398,
      "Ġmart": 7399,
      "Ġhal": 7400,
      "Ġdemon": 7401,
      "ĠOx": 7402,
      "liest": 7403,
      "subject": 7404,
      "Ġcoffee": 7405,
      "orter": 7406,
      "Ġreceiving": 7407,
      "EC": 7408,
      "Phil": 7409,
      "pot": 7410,
      "Ġsees": 7411,
      "Ġansw": 7412,
      "Ġbarbar": 7413,
      "Ġassure": 7414,
      "Ġreputation": 7415,
      "ĠSar": 7416,
      "making": 7417,
      "Ġeternal": 7418,
      "loqu": 7419,
      "esar": 7420,
      "utter": 7421,
      "Ġfury": 7422,
      "Ġcitizens": 7423,
      "Ġresources": 7424,
      "itan": 7425,
      "why": 7426,
      "Ġmixed": 7427,
      "Ġach": 7428,
      "Ġsuccessful": 7429,
      "Ġpup": 7430,
      "Ġlately": 7431,
      "Ġnin": 7432,
      "Ġvi": 7433,
      "Ġdistinction": 7434,
      "Ġcommonly": 7435,
      "prot": 7436,
      "Ġpainted": 7437,
      "Ġclock": 7438,
      "past": 7439,
      "Ġdrinking": 7440,
      "gust": 7441,
      "Ġreduced": 7442,
      "ĠTem": 7443,
      "ĠHon": 7444,
      "Ġlonely": 7445,
      "Ġrush": 7446,
      "ĠCle": 7447,
      "Ġloves": 7448,
      "Ġsust": 7449,
      "oration": 7450,
      "Ġstayed": 7451,
      "arms": 7452,
      "Chapter": 7453,
      "full": 7454,
      "oups": 7455,
      "ĠSand": 7456,
      "strong": 7457,
      "eff": 7458,
      "ĠSon": 7459,
      "ĠColl": 7460,
      "Ġleader": 7461,
      "Ġplans": 7462,
      "does": 7463,
      "large": 7464,
      "Ġeconomic": 7465,
      "ĠMus": 7466,
      "atio": 7467,
      "ĠLL": 7468,
      "Ġdestruction": 7469,
      "Ġincludes": 7470,
      "Ġqueer": 7471,
      "asper": 7472,
      "Ġreference": 7473,
      "Ġconceal": 7474,
      "ope": 7475,
      "Ġhtt": 7476,
      "high": 7477,
      "employ": 7478,
      "Ġinsect": 7479,
      "udd": 7480,
      "hia": 7481,
      "Ġfrequent": 7482,
      "Ġeffects": 7483,
      "ĠAcc": 7484,
      "ĠAsia": 7485,
      "ĠAG": 7486,
      "Ġwinds": 7487,
      "Ġproperly": 7488,
      "human": 7489,
      "Ġwrath": 7490,
      "Ġwhilst": 7491,
      "pa": 7492,
      "Ġcompelled": 7493,
      "Ġcontract": 7494,
      "Ġconstitution": 7495,
      "Ġderiv": 7496,
      "Ġsending": 7497,
      "Di": 7498,
      "illes": 7499,
      "Ġimpr": 7500,
      "ĠStill": 7501,
      "Ġfrank": 7502,
      "Ġvaluable": 7503,
      "Ġcrew": 7504,
      "Ġlap": 7505,
      "irs": 7506,
      "ĠMel": 7507,
      "Ġ31": 7508,
      "Ġvoyage": 7509,
      "Ġbegged": 7510,
      "cro": 7511,
      "isto": 7512,
      "ccles": 7513,
      ">),": 7514,
      "creat": 7515,
      "lic": 7516,
      "ĠWhe": 7517,
      "arian": 7518,
      "anto": 7519,
      "ĠTro": 7520,
      "ĠWashing": 7521,
      "wit": 7522,
      "ĠCent": 7523,
      "Ġinher": 7524,
      "Ġintense": 7525,
      "ĠIV": 7526,
      "Ġgrant": 7527,
      "box": 7528,
      "ĠMars": 7529,
      "Ġfamilies": 7530,
      "Ġphilosophy": 7531,
      "vity": 7532,
      "lady": 7533,
      "Land": 7534,
      "Ġutterly": 7535,
      "mical": 7536,
      "Ġsimpl": 7537,
      "wing": 7538,
      "omed": 7539,
      "Ġentreat": 7540,
      "1989": 7541,
      "Ġarts": 7542,
      "Ġcease": 7543,
      "Ġdeliber": 7544,
      "Ġdrank": 7545,
      "Ġarticles": 7546,
      "Ġliterature": 7547,
      "told": 7548,
      "Ġactions": 7549,
      "Ġdeveloped": 7550,
      "Ġcheerful": 7551,
      "TM": 7552,
      "gly": 7553,
      "Ġfert": 7554,
      "hers": 7555,
      "Ġouter": 7556,
      "Ġshoes": 7557,
      "Ġshaking": 7558,
      "ĠGreeks": 7559,
      "ggy": 7560,
      "Nothing": 7561,
      "ternational": 7562,
      "Ġdisposed": 7563,
      "\",": 7564,
      "Ġbay": 7565,
      "shine": 7566,
      "Mus": 7567,
      "pir": 7568,
      "whom": 7569,
      "Ġoh": 7570,
      "Ġidle": 7571,
      "cest": 7572,
      "ĠLook": 7573,
      "ida": 7574,
      "Ġnervous": 7575,
      "itate": 7576,
      "onsense": 7577,
      "ĠÃĲ": 7578,
      "QU": 7579,
      "Ġtoss": 7580,
      "Ġsteep": 7581,
      "Ġchat": 7582,
      "Ġdared": 7583,
      "Ġactual": 7584,
      "Ġthoroughly": 7585,
      "ĠSha": 7586,
      "ĠHence": 7587,
      "aire": 7588,
      "keeper": 7589,
      "Ġpatience": 7590,
      "Ġpainful": 7591,
      "small": 7592,
      "Ġclergy": 7593,
      "gments": 7594,
      "ĠIl": 7595,
      "Ġiii": 7596,
      "Ġdefence": 7597,
      "withstanding": 7598,
      "Ġpurposes": 7599,
      "ĠDi": 7600,
      "ĠĠĠĠĠĠĠĠĠĠĠĠĠĠĠĠĠĠĠ": 7601,
      "fig": 7602,
      "ifts": 7603,
      "eur": 7604,
      "ĠPier": 7605,
      "inery": 7606,
      "Ġtroubles": 7607,
      "Ġrisk": 7608,
      "Ġcontempl": 7609,
      "Bl": 7610,
      "Ġpace": 7611,
      "bal": 7612,
      "sim": 7613,
      "effect": 7614,
      "Ġclerk": 7615,
      "Ġmode": 7616,
      "ige": 7617,
      "Ġfathers": 7618,
      "olation": 7619,
      "Ġbride": 7620,
      "uris": 7621,
      "Ġthousands": 7622,
      "Ġstatement": 7623,
      "ĠWashington": 7624,
      "unities": 7625,
      "Ġmeal": 7626,
      "ulating": 7627,
      "pleasant": 7628,
      "given": 7629,
      "Ġabund": 7630,
      "Ġrepublic": 7631,
      "Ġriding": 7632,
      "Ġdetails": 7633,
      "ĠNature": 7634,
      "Ġhungry": 7635,
      "ares": 7636,
      "Ġsurround": 7637,
      "Ġcenter": 7638,
      "Ġdisplayed": 7639,
      "Ġprotection": 7640,
      "abs": 7641,
      "kerchief": 7642,
      "pse": 7643,
      "Ġlion": 7644,
      "Ġsettle": 7645,
      "Ġignorance": 7646,
      "Ġadopted": 7647,
      "pha": 7648,
      "engers": 7649,
      "ĠHal": 7650,
      "Ġmostly": 7651,
      "mine": 7652,
      "piece": 7653,
      "Ġlof": 7654,
      "Ġseats": 7655,
      "Ġqualities": 7656,
      "Ġdeed": 7657,
      "202": 7658,
      "Ġpoetry": 7659,
      "Ġcandle": 7660,
      "Ġrange": 7661,
      "mble": 7662,
      "wait": 7663,
      "Ġbir": 7664,
      "Ġunconscious": 7665,
      "iated": 7666,
      "Phys": 7667,
      "Ġvisited": 7668,
      "Ġknights": 7669,
      "taking": 7670,
      "orting": 7671,
      "ĠOther": 7672,
      "fish": 7673,
      "ĠRalph": 7674,
      "Ġleaned": 7675,
      "Ġwaist": 7676,
      "Ġunited": 7677,
      "achel": 7678,
      "dev": 7679,
      "Ġwra": 7680,
      "Ãªme": 7681,
      "Ġdoctrine": 7682,
      "Ġrecovered": 7683,
      "necessary": 7684,
      "vering": 7685,
      "Ġresumed": 7686,
      "Ġtimber": 7687,
      "Ġwidow": 7688,
      "ĠAustral": 7689,
      "Ġelle": 7690,
      "uded": 7691,
      "break": 7692,
      "Ġtreatment": 7693,
      "Ġsugar": 7694,
      "Ġresolution": 7695,
      "Ġtut": 7696,
      "550": 7697,
      "Ġard": 7698,
      "olk": 7699,
      "Ġslipped": 7700,
      "fellow": 7701,
      "Ġbade": 7702,
      "Ġlect": 7703,
      "Mad": 7704,
      "Ġrenew": 7705,
      "Ġclub": 7706,
      "words": 7707,
      "Americ": 7708,
      "passed": 7709,
      "Ġdesperate": 7710,
      "icks": 7711,
      "keep": 7712,
      "bear": 7713,
      "Ġcircumstance": 7714,
      "ĠJerusalem": 7715,
      "Ġabrupt": 7716,
      "however": 7717,
      "Ġnights": 7718,
      "days": 7719,
      "ĠProt": 7720,
      "rather": 7721,
      "Â».": 7722,
      "Ġsul": 7723,
      "Ġinsp": 7724,
      "horse": 7725,
      "ressing": 7726,
      "Ġcommission": 7727,
      "Ġopinions": 7728,
      "Ġlegisl": 7729,
      "Ġprovisions": 7730,
      "iger": 7731,
      "Ġreported": 7732,
      "Was": 7733,
      "Ġeditions": 7734,
      "glass": 7735,
      "Ġpuzz": 7736,
      "intell": 7737,
      "Ġharmon": 7738,
      "----\"": 7739,
      "twenty": 7740,
      "occup": 7741,
      "Ġflow": 7742,
      "Ġexecution": 7743,
      "Ġcharacters": 7744,
      "Ġapprehens": 7745,
      "lets": 7746,
      "ĠWat": 7747,
      "ĠOz": 7748,
      "ILL": 7749,
      "chor": 7750,
      "ĠAunt": 7751,
      "Ġinfant": 7752,
      "Ġ=": 7753,
      "Ġinches": 7754,
      "ĠIndians": 7755,
      "state": 7756,
      "ĠThy": 7757,
      "Ġconcluded": 7758,
      "Ġsleeping": 7759,
      "Ġlock": 7760,
      "Ġshadows": 7761,
      "iast": 7762,
      "Ġtide": 7763,
      "Ġcelebrated": 7764,
      "Pres": 7765,
      "Ġuseless": 7766,
      "Ġornament": 7767,
      "Ġperceive": 7768,
      "achment": 7769,
      "Ġdegrees": 7770,
      "ĠOff": 7771,
      "uine": 7772,
      "Ġislands": 7773,
      "Ġsomehow": 7774,
      "fell": 7775,
      "compl": 7776,
      "Ġobservation": 7777,
      "Ġdiff": 7778,
      "Ġgets": 7779,
      "Ġ36": 7780,
      "Ġpolit": 7781,
      "ĠNicholas": 7782,
      "Ġstraw": 7783,
      "Ġrevenge": 7784,
      "ĠJac": 7785,
      "ixture": 7786,
      "rum": 7787,
      "ounter": 7788,
      "OC": 7789,
      "Ġchim": 7790,
      "Ġchanges": 7791,
      "Ã©tait": 7792,
      "import": 7793,
      "Ġdescended": 7794,
      "Ġexpenditures": 7795,
      "Ġobed": 7796,
      "account": 7797,
      "Ġelement": 7798,
      "Ġeverywhere": 7799,
      "Ġstaring": 7800,
      "ĠBa": 7801,
      "ÃŁ": 7802,
      "bor": 7803,
      "reve": 7804,
      "Ġmagic": 7805,
      "aned": 7806,
      "Ġpreserve": 7807,
      "Ġbrethren": 7808,
      "sus": 7809,
      "Ġshed": 7810,
      "Ġreasonable": 7811,
      "Ġstatus": 7812,
      "asse": 7813,
      "Cap": 7814,
      "Ġlament": 7815,
      "ĠUncle": 7816,
      "Ġswept": 7817,
      "Hy": 7818,
      "Ġreality": 7819,
      "Ġrecent": 7820,
      "Ġbone": 7821,
      "Ġirrit": 7822,
      "Ġrecognized": 7823,
      "ifies": 7824,
      "Ġintim": 7825,
      "Ġtour": 7826,
      "ĠNothing": 7827,
      "Ġeconomy": 7828,
      "Ġcritic": 7829,
      "sen": 7830,
      "Ġdepos": 7831,
      "HT": 7832,
      "Ġpresident": 7833,
      "Ġcomplex": 7834,
      "Ġeleg": 7835,
      "Ġsou": 7836,
      "Ġviews": 7837,
      "rified": 7838,
      "umer": 7839,
      "====": 7840,
      "OP": 7841,
      "289": 7842,
      "Ġeating": 7843,
      "istence": 7844,
      "olloq": 7845,
      "ections": 7846,
      "headed": 7847,
      "ĠDecember": 7848,
      "je": 7849,
      "oof": 7850,
      "icken": 7851,
      "Ġmarks": 7852,
      "Ġcopper": 7853,
      "Ġtied": 7854,
      "ĠChaucer": 7855,
      "omer": 7856,
      "Ġplat": 7857,
      "Ġdesir": 7858,
      "Ġapproaching": 7859,
      "greg": 7860,
      "communic": 7861,
      "Ġsensible": 7862,
      "uis": 7863,
      "omach": 7864,
      "Ġ[_": 7865,
      "Ġmaiden": 7866,
      "ĠUpon": 7867,
      "Ġsufficiently": 7868,
      "Ġsteady": 7869,
      "ruary": 7870,
      "Ġcutting": 7871,
      "Ġbrand": 7872,
      "Ġscale": 7873,
      "Ġaltar": 7874,
      "Har": 7875,
      "aur": 7876,
      "Ġscheme": 7877,
      "Ġtar": 7878,
      "closed": 7879,
      "brother": 7880,
      "ĠOnce": 7881,
      "icles": 7882,
      "Ġsob": 7883,
      "ertainly": 7884,
      "Ġlan": 7885,
      "Ġholid": 7886,
      "Ġdriving": 7887,
      "Ġhanded": 7888,
      "Ġrepresentation": 7889,
      "Ġapartment": 7890,
      "Ġton": 7891,
      "Ġcomment": 7892,
      "jected": 7893,
      "IA": 7894,
      "espe": 7895,
      "Ġsupre": 7896,
      "utenant": 7897,
      "Ġbanks": 7898,
      "Ġstructure": 7899,
      "889": 7900,
      ">:": 7901,
      "spect": 7902,
      "Ġfeed": 7903,
      "299": 7904,
      "Ġerror": 7905,
      "Ġ<?/,": 7906,
      "Ġdeny": 7907,
      "prof": 7908,
      "Ġguests": 7909,
      "Ġenormous": 7910,
      "[_": 7911,
      "Ġsummon": 7912,
      "Ġexpenses": 7913,
      "character": 7914,
      "Ġlift": 7915,
      "Ġ80": 7916,
      "Ġearlier": 7917,
      "Ġuser": 7918,
      "ĠAgain": 7919,
      "Ġcollege": 7920,
      "Ġoperation": 7921,
      "ighted": 7922,
      "Ġsixty": 7923,
      "Ġconquer": 7924,
      "Because": 7925,
      "Char": 7926,
      "Ġtower": 7927,
      "Ġswear": 7928,
      "sell": 7929,
      "Ġforming": 7930,
      "Ġwax": 7931,
      "ords": 7932,
      "bler": 7933,
      "Ġbrid": 7934,
      "ifted": 7935,
      "Ġsisters": 7936,
      "Ġawake": 7937,
      "Ġconstruction": 7938,
      "Ġmistaken": 7939,
      "ĠReg": 7940,
      "ĠSil": 7941,
      "Ġwire": 7942,
      "Ġdisgrace": 7943,
      "Ġinvited": 7944,
      "Ġcriminal": 7945,
      "ĠRog": 7946,
      "ĠHa": 7947,
      "764": 7948,
      "pled": 7949,
      "Ġreadily": 7950,
      "Ġdelightful": 7951,
      "Ġacknowled": 7952,
      "each": 7953,
      "ĠWH": 7954,
      "Ġmanaged": 7955,
      "Ġclam": 7956,
      "aman": 7957,
      "soon": 7958,
      "Ġpreserved": 7959,
      "Ġprize": 7960,
      "Ġmanifest": 7961,
      "ĠCatholic": 7962,
      "wich": 7963,
      "Ġ***": 7964,
      "rol": 7965,
      "Ġendure": 7966,
      "Ġeagerly": 7967,
      "Ġacted": 7968,
      "Ġdeaths": 7969,
      "Ġsyn": 7970,
      "ĠBro": 7971,
      "1991": 7972,
      "Ġpropriet": 7973,
      "ĠScotland": 7974,
      "Ġstrangers": 7975,
      "Ġbeloved": 7976,
      "Ġburden": 7977,
      "Ġannounced": 7978,
      "Ġseparated": 7979,
      "fact": 7980,
      "Ġweb": 7981,
      "uches": 7982,
      "vag": 7983,
      "Ġleather": 7984,
      "ĠJones": 7985,
      "Ġstrongly": 7986,
      "Ġwrought": 7987,
      "Ġgracious": 7988,
      "var": 7989,
      "Ġâ": 7990,
      "ĠThor": 7991,
      "live": 7992,
      "proper": 7993,
      "Ġapplicable": 7994,
      "?--": 7995,
      "Saint": 7996,
      "Ġsank": 7997,
      "Ġmit": 7998,
      "Ġdefective": 7999,
      "Ġpenet": 8000,
      "Ġnurse": 8001,
      "ĠGrand": 8002,
      "Ġvon": 8003,
      "ipped": 8004,
      "Ġfolly": 8005,
      "Ġexposed": 8006,
      "Def": 8007,
      "LY": 8008,
      "ĠWould": 8009,
      "Ġgross": 8010,
      "Ġaver": 8011,
      "Ġrud": 8012,
      "Ġaer": 8013,
      "Ġatmosphere": 8014,
      "Ġcomr": 8015,
      "rained": 8016,
      "VII": 8017,
      "whether": 8018,
      "989": 8019,
      "Ġlam": 8020,
      "Ġbeard": 8021,
      "ĠCong": 8022,
      "bably": 8023,
      "Ġboats": 8024,
      "Ġmig": 8025,
      "Ġdancing": 8026,
      "VIII": 8027,
      "Ġsignal": 8028,
      "Ste": 8029,
      "Ġleaders": 8030,
      "pract": 8031,
      "Ġfain": 8032,
      "ĠFrancis": 8033,
      "bb": 8034,
      "raction": 8035,
      "Ġannoy": 8036,
      "dark": 8037,
      "ĠDel": 8038,
      "chester": 8039,
      "until": 8040,
      "Ġhem": 8041,
      "Ġastonished": 8042,
      "Tom": 8043,
      "Ġcotton": 8044,
      "Ġapply": 8045,
      "Ġpolicy": 8046,
      "ĠOHG": 8047,
      "acific": 8048,
      "ĠJanuary": 8049,
      "734": 8050,
      "inese": 8051,
      "Ġappar": 8052,
      "Ġfoul": 8053,
      "Ġurged": 8054,
      "Ġconstruct": 8055,
      "Ġappeal": 8056,
      "Ġprovinces": 8057,
      "Ġwondering": 8058,
      "Ġabsor": 8059,
      "Ġembra": 8060,
      "abled": 8061,
      "ĠParliament": 8062,
      "mel": 8063,
      "Ġ37": 8064,
      "Ġconstantly": 8065,
      "Ġzeal": 8066,
      "882": 8067,
      "Nay": 8068,
      "cross": 8069,
      "Ġalike": 8070,
      "563": 8071,
      "Pre": 8072,
      "ckets": 8073,
      "Ġbind": 8074,
      "Ġsuspect": 8075,
      "Ġmedicine": 8076,
      "Ġvice": 8077,
      "Ġsincere": 8078,
      "Ġexperiment": 8079,
      "ĠFin": 8080,
      "Ġfounded": 8081,
      "Ġ65": 8082,
      "ĠIM": 8083,
      "Ġreferences": 8084,
      "mem": 8085,
      "ĠSociety": 8086,
      "Ġaudience": 8087,
      "Ġfees": 8088,
      "whole": 8089,
      "riff": 8090,
      "Ġfund": 8091,
      "athed": 8092,
      "alty": 8093,
      "Ġcareer": 8094,
      "Ġsighed": 8095,
      "vell": 8096,
      "ĠWorld": 8097,
      "alling": 8098,
      "ummer": 8099,
      "Ġcottage": 8100,
      "Bur": 8101,
      "wife": 8102,
      "Ġflock": 8103,
      "Ġopposition": 8104,
      "Ġchin": 8105,
      "Ġcrops": 8106,
      "Ġpink": 8107,
      "idents": 8108,
      "Ġconstit": 8109,
      "ĠZe": 8110,
      "Ġreproach": 8111,
      "Ġingen": 8112,
      "Ġmuttered": 8113,
      "282": 8114,
      "................................": 8115,
      "steps": 8116,
      "ounding": 8117,
      "Ġguns": 8118,
      "Ġburned": 8119,
      "ĠAbout": 8120,
      "Ġtoler": 8121,
      "ules": 8122,
      "END": 8123,
      "ĠCorn": 8124,
      "Ġdisplay": 8125,
      "ĠIreland": 8126,
      "Ġgrasp": 8127,
      "PR": 8128,
      "IND": 8129,
      "rend": 8130,
      "Ġremote": 8131,
      "Ġleaning": 8132,
      "ĠAthen": 8133,
      "Ġconvention": 8134,
      "ibr": 8135,
      "Ġslender": 8136,
      "Ġcards": 8137,
      "Ġplun": 8138,
      "iasm": 8139,
      "Ġconsciousness": 8140,
      "OD": 8141,
      "money": 8142,
      "urt": 8143,
      "trans": 8144,
      "Ġfest": 8145,
      "aining": 8146,
      "ĠTodd": 8147,
      "Ġassembl": 8148,
      "Ġincident": 8149,
      "burgh": 8150,
      "¿½": 8151,
      "Ġhed": 8152,
      "Ġtribe": 8153,
      "ĠSusan": 8154,
      "King": 8155,
      "Me": 8156,
      "Bar": 8157,
      "ï¿½": 8158,
      "cu": 8159,
      "inople": 8160,
      "Ġsolic": 8161,
      "hundred": 8162,
      "Ġate": 8163,
      "Ġartist": 8164,
      "Ġshelter": 8165,
      "Ġlofty": 8166,
      "crow": 8167,
      "ĠJews": 8168,
      "Ġflu": 8169,
      "Ġlimbs": 8170,
      "ques": 8171,
      "usk": 8172,
      "........................................": 8173,
      "everything": 8174,
      "Ġreckon": 8175,
      "si": 8176,
      "resses": 8177,
      "Ġwhale": 8178,
      "Ġoccasionally": 8179,
      "Thank": 8180,
      "Ġgratitude": 8181,
      "1995": 8182,
      "Ġfulf": 8183,
      "Ġarise": 8184,
      "922": 8185,
      "Ġ44": 8186,
      "ĠTra": 8187,
      "ĠAct": 8188,
      "Ġcompet": 8189,
      "Ġheed": 8190,
      "amation": 8191,
      "unless": 8192,
      "Ġschol": 8193,
      "quisite": 8194,
      "qual": 8195,
      "text": 8196,
      "Ġgrateful": 8197,
      "982": 8198,
      "Ġboots": 8199,
      "Ġcentral": 8200,
      "thousand": 8201,
      "ĠBuck": 8202,
      "Ġclasses": 8203,
      "Ġfitted": 8204,
      "Ġeloqu": 8205,
      "pleasure": 8206,
      "Pope": 8207,
      "Ġpant": 8208,
      "Ġsecurity": 8209,
      "Ġhelpless": 8210,
      "Ġprecise": 8211,
      "ĠMoses": 8212,
      "Ġsupported": 8213,
      "otions": 8214,
      "Ġflatter": 8215,
      "ĠChina": 8216,
      "Ġforever": 8217,
      "Ġheavens": 8218,
      "ĠRussian": 8219,
      "Ġprey": 8220,
      "NE": 8221,
      "ĠDen": 8222,
      "Ġspeaks": 8223,
      "Ġstamp": 8224,
      "efully": 8225,
      "Ġprejud": 8226,
      "ĠAfrican": 8227,
      "Ġastonishment": 8228,
      "vy": 8229,
      "Ġwarning": 8230,
      "Ġedition": 8231,
      "Ġstronger": 8232,
      "Ġseas": 8233,
      "umbled": 8234,
      "ĠVirgin": 8235,
      "uously": 8236,
      "boat": 8237,
      "Ġstations": 8238,
      "Ġpover": 8239,
      "Ġbenefit": 8240,
      "phen": 8241,
      "Ġtowns": 8242,
      "Ġoccupation": 8243,
      "Ġwww": 8244,
      "ston": 8245,
      "ĠChristmas": 8246,
      "Ġembarrass": 8247,
      "Ġdimin": 8248,
      ">]</": 8249,
      "Ġcave": 8250,
      "Ġcunning": 8251,
      "ĠVict": 8252,
      "ouraged": 8253,
      "ĠDeath": 8254,
      "ded": 8255,
      "Ġneat": 8256,
      "open": 8257,
      "Ġdiamond": 8258,
      "Ġbishop": 8259,
      "Ġrestored": 8260,
      "Ġinner": 8261,
      "hibit": 8262,
      "ĠSame": 8263,
      "istent": 8264,
      "Ġoccasions": 8265,
      "Ġstroke": 8266,
      "urious": 8267,
      "Ġgenerations": 8268,
      "Ġburnt": 8269,
      "UD": 8270,
      "ĠUnder": 8271,
      "Ġtrace": 8272,
      "ouv": 8273,
      "Ġimagined": 8274,
      "Ġapt": 8275,
      "pline": 8276,
      "Ġlocked": 8277,
      "idity": 8278,
      "Ġprisoners": 8279,
      "complete": 8280,
      "BOOK": 8281,
      "Ġprem": 8282,
      "Ġsolicit": 8283,
      "Ġlic": 8284,
      "Ġdoc": 8285,
      "Colloq": 8286,
      "ĠSen": 8287,
      "Ġshone": 8288,
      "Ġsumm": 8289,
      "ĠSince": 8290,
      "Ġmidnight": 8291,
      "Ġgovernor": 8292,
      "Ġpriests": 8293,
      "New": 8294,
      "Ġwilt": 8295,
      "wed": 8296,
      "555": 8297,
      "Ġtrail": 8298,
      "compan": 8299,
      "Ġcontinually": 8300,
      "Ġeleven": 8301,
      "lear": 8302,
      "Ġquarters": 8303,
      "dess": 8304,
      "ITH": 8305,
      "ez": 8306,
      "public": 8307,
      "Ġforbid": 8308,
      "--_": 8309,
      "Ġprophe": 8310,
      "ĠDev": 8311,
      "Ġmarble": 8312,
      "ĠAmong": 8313,
      "IVE": 8314,
      "cking": 8315,
      "ĠTw": 8316,
      "Ġsilly": 8317,
      "Ġces": 8318,
      "Ġpoured": 8319,
      "imag": 8320,
      "bac": 8321,
      "Ġgoodness": 8322,
      "Ġrestrict": 8323,
      "speak": 8324,
      "Ġtin": 8325,
      "Ġconfused": 8326,
      "including": 8327,
      "ala": 8328,
      "ĠBarbar": 8329,
      "ĠCaesar": 8330,
      "sla": 8331,
      "ĠTy": 8332,
      "Ġchap": 8333,
      "Ġgrain": 8334,
      "Ġ00000": 8335,
      "list": 8336,
      "Ġscientific": 8337,
      "Ġantic": 8338,
      "Dr": 8339,
      "year": 8340,
      "version": 8341,
      "Ġartific": 8342,
      "Ġreaching": 8343,
      "Ġactivity": 8344,
      "ĠDun": 8345,
      "Ġconsid": 8346,
      "Ġpoverty": 8347,
      "âĢĶâĢľ": 8348,
      "Ġbrass": 8349,
      "Ġcommercial": 8350,
      "arts": 8351,
      "ĠDam": 8352,
      "orence": 8353,
      "ĠĠĠĠĠĠĠĠĠĠĠĠĠ": 8354,
      "iary": 8355,
      "Ġhumanity": 8356,
      "Ġdeclare": 8357,
      "Ġambition": 8358,
      "fav": 8359,
      "position": 8360,
      "Ġstated": 8361,
      "oping": 8362,
      "Ġlun": 8363,
      "ĠChristians": 8364,
      "Ġlively": 8365,
      "best": 8366,
      "Ġnorthern": 8367,
      "eyed": 8368,
      "ini": 8369,
      "Ġnotion": 8370,
      "mount": 8371,
      "Ġunusual": 8372,
      "Ġfurnished": 8373,
      "ĠChief": 8374,
      "nant": 8375,
      "igne": 8376,
      "iller": 8377,
      "Ġduke": 8378,
      "Ġbelonged": 8379,
      "pose": 8380,
      "Ġwake": 8381,
      "Ġstor": 8382,
      "Ġreflection": 8383,
      "satisf": 8384,
      "elly": 8385,
      "Ġprobable": 8386,
      "Ġugly": 8387,
      "Ġpassions": 8388,
      "Ġinterview": 8389,
      "Ġdefinite": 8390,
      "Ġhundreds": 8391,
      "Ġindependent": 8392,
      "Ġnoted": 8393,
      "aments": 8394,
      "Ġdifficulties": 8395,
      "ado": 8396,
      "cope": 8397,
      "provid": 8398,
      "ĠBritain": 8399,
      "istered": 8400,
      "Ġreports": 8401,
      "eman": 8402,
      "Ġtiny": 8403,
      "Ġbatt": 8404,
      "lad": 8405,
      "659": 8406,
      "Ġfirmly": 8407,
      "Ġnurs": 8408,
      "ects": 8409,
      "Ġconcealed": 8410,
      "knew": 8411,
      "?-": 8412,
      "ona": 8413,
      "Ġfu": 8414,
      "Ġpayments": 8415,
      "ĠIrish": 8416,
      "Ag": 8417,
      "Ġsne": 8418,
      "believe": 8419,
      "burn": 8420,
      "Ġou": 8421,
      "Ġconfined": 8422,
      "Ġliquid": 8423,
      "]'": 8424,
      "imony": 8425,
      "Ġpond": 8426,
      "oleon": 8427,
      "Ġstrain": 8428,
      "aylor": 8429,
      "isk": 8430,
      "Ġtick": 8431,
      "Ġconfirmed": 8432,
      "letter": 8433,
      "ITED": 8434,
      "Ġexception": 8435,
      "appearance": 8436,
      "ĠIndeed": 8437,
      "Ġderivative": 8438,
      "div": 8439,
      "ĠThan": 8440,
      "Ġvir": 8441,
      "Ġspear": 8442,
      "alking": 8443,
      "Ġjaw": 8444,
      "Ġash": 8445,
      "Ġpursuit": 8446,
      "Ġdismiss": 8447,
      "uity": 8448,
      "Ġfurniture": 8449,
      "Ġsignific": 8450,
      "Ġmajesty": 8451,
      "Ġideal": 8452,
      "Ġtheatre": 8453,
      "Ġhaz": 8454,
      "Ġjack": 8455,
      "Ġacquired": 8456,
      "Ġrecover": 8457,
      "Ġguilt": 8458,
      "town": 8459,
      "understand": 8460,
      "akened": 8461,
      "lessness": 8462,
      "Ġsounded": 8463,
      "557": 8464,
      "Ġrays": 8465,
      "risto": 8466,
      "Ġblows": 8467,
      "Ã¯": 8468,
      "292": 8469,
      "Ġhunting": 8470,
      "odities": 8471,
      "Ġcreation": 8472,
      "Ġmaterials": 8473,
      "gave": 8474,
      "Ġobtaining": 8475,
      "IRE": 8476,
      "National": 8477,
      "opulation": 8478,
      "odes": 8479,
      "ĠAndrew": 8480,
      "Their": 8481,
      "Ġacting": 8482,
      "Ġconcern": 8483,
      "Ġwhatsoever": 8484,
      "Ġknee": 8485,
      "general": 8486,
      "Ġdeserted": 8487,
      "whose": 8488,
      "hour": 8489,
      "erness": 8490,
      "Ġped": 8491,
      "Ġhated": 8492,
      "Ġgloomy": 8493,
      "Over": 8494,
      "ees": 8495,
      "Mil": 8496,
      "OSE": 8497,
      "Ġabst": 8498,
      "Ġrested": 8499,
      "Ġstudied": 8500,
      "Ġcovering": 8501,
      "Ġhook": 8502,
      "Ġbi": 8503,
      "estab": 8504,
      "Ġtomb": 8505,
      "Ġthirst": 8506,
      "Ġinform": 8507,
      "Ġvanity": 8508,
      "ware": 8509,
      "Ġperil": 8510,
      "death": 8511,
      "RS": 8512,
      "Ġfishing": 8513,
      "cca": 8514,
      "build": 8515,
      "Ġborrow": 8516,
      "brance": 8517,
      "eve": 8518,
      "ĠEach": 8519,
      "Ġentering": 8520,
      "enc": 8521,
      "Ġcy": 8522,
      "Ġexceedingly": 8523,
      "eight": 8524,
      "itious": 8525,
      "Ġwriters": 8526,
      "Ġangle": 8527,
      "Ġwives": 8528,
      "Ġadapt": 8529,
      "erick": 8530,
      "Ġrealized": 8531,
      "IST": 8532,
      "Cor": 8533,
      "strange": 8534,
      "ĠJany": 8535,
      "Ġours": 8536,
      "Ġgroups": 8537,
      "Ġcliff": 8538,
      "Ġaccomplished": 8539,
      "Ġvulgar": 8540,
      "Ġnearest": 8541,
      "ĠOut": 8542,
      "Ġprayers": 8543,
      "553": 8544,
      "pended": 8545,
      "mous": 8546,
      "Ġ75": 8547,
      "Out": 8548,
      "Ġconcrete": 8549,
      "ILITY": 8550,
      "Ġoriginally": 8551,
      "Even": 8552,
      "Ġallied": 8553,
      "Ġthrowing": 8554,
      "Ġdisturb": 8555,
      "Ġmerc": 8556,
      "Ġaccordance": 8557,
      "kward": 8558,
      "lay": 8559,
      "ĠMount": 8560,
      "ironment": 8561,
      "idel": 8562,
      "506": 8563,
      "Ġinsisted": 8564,
      "vidence": 8565,
      "Ġrevolution": 8566,
      "tu": 8567,
      "ĠPick": 8568,
      "Ġparagraphs": 8569,
      "Ġpains": 8570,
      "Ġovercome": 8571,
      "556": 8572,
      "Ġmaintained": 8573,
      "ĠBible": 8574,
      "Ġ189": 8575,
      "Ġchemical": 8576,
      "isters": 8577,
      "Ġreceipt": 8578,
      "voice": 8579,
      "till": 8580,
      "Ġdirty": 8581,
      "indeed": 8582,
      "Ġraising": 8583,
      "Long": 8584,
      "ports": 8585,
      "505": 8586,
      "Ġreflected": 8587,
      "oria": 8588,
      "allel": 8589,
      "Ġfeeble": 8590,
      "Ġcommunity": 8591,
      "Ġroads": 8592,
      "Ġbath": 8593,
      "Ġsym": 8594,
      "Like": 8595,
      "Ġattempted": 8596,
      "CON": 8597,
      "Ġfalls": 8598,
      "rot": 8599,
      "rily": 8600,
      "Ġancest": 8601,
      "Ġspecul": 8602,
      "ĠTurk": 8603,
      "Ġexperienced": 8604,
      "ĠTemple": 8605,
      "Before": 8606,
      "flo": 8607,
      "rates": 8608,
      "ym": 8609,
      "oiselle": 8610,
      "hered": 8611,
      "Ġperple": 8612,
      "Ġadmire": 8613,
      "Ġresc": 8614,
      "Ġheavily": 8615,
      "ima": 8616,
      "Ġprovince": 8617,
      "Ġleisure": 8618,
      "drew": 8619,
      "chair": 8620,
      "idd": 8621,
      "Ġwherein": 8622,
      "Ġvirtues": 8623,
      "Ġwedding": 8624,
      "Ġessential": 8625,
      "ERS": 8626,
      "Ac": 8627,
      "hist": 8628,
      "aging": 8629,
      "Ġinterpret": 8630,
      "irit": 8631,
      "Ġreplacement": 8632,
      "anna": 8633,
      "Ġio": 8634,
      "Ġmillions": 8635,
      "Ġcrowded": 8636,
      "Ġrival": 8637,
      "Ġvest": 8638,
      "Ġsport": 8639,
      "Ġdesk": 8640,
      "Ġharsh": 8641,
      "Illustration": 8642,
      "received": 8643,
      "Upon": 8644,
      "Ġec": 8645,
      "Ġtrump": 8646,
      "UL": 8647,
      "green": 8648,
      "tree": 8649,
      "ĠIF": 8650,
      "apoleon": 8651,
      "Ġsorts": 8652,
      "omy": 8653,
      "ĠĠĠĠĠĠĠĠĠĠĠĠĠĠĠĠĠĠĠĠĠĠĠĠĠĠĠĠĠĠĠĠĠĠĠĠĠĠĠĠ": 8654,
      "Ġrepent": 8655,
      "ensed": 8656,
      "perfect": 8657,
      "Ġimpulse": 8658,
      "Ġgallant": 8659,
      "fant": 8660,
      "Ġ84": 8661,
      "Ed": 8662,
      "Ġincon": 8663,
      "geance": 8664,
      "Ġdisgust": 8665,
      "Ġinjury": 8666,
      "gle": 8667,
      "ĠTHAT": 8668,
      "Ġconj": 8669,
      "inth": 8670,
      "Ġdepth": 8671,
      "Ġcompared": 8672,
      "Ġsunshine": 8673,
      "Ġmadam": 8674,
      "Ġventure": 8675,
      "osity": 8676,
      "Ġjest": 8677,
      "Ġbaron": 8678,
      "Ġknocked": 8679,
      "Ġmes": 8680,
      "_.]": 8681,
      "Ġcomplying": 8682,
      "Ġextrem": 8683,
      "567": 8684,
      "chance": 8685,
      "Ġling": 8686,
      "tive": 8687,
      "corn": 8688,
      "Tell": 8689,
      "itors": 8690,
      "Ġpark": 8691,
      "Ġdiscer": 8692,
      "Ġchur": 8693,
      "Ġmachinery": 8694,
      "ĠTell": 8695,
      "ĠFA": 8696,
      "Ġcoward": 8697,
      "Ġupward": 8698,
      "Ġrolling": 8699,
      "Ġrepeat": 8700,
      "Ġaccur": 8701,
      "Ġmaintain": 8702,
      "ËĨ": 8703,
      "Ġpowder": 8704,
      "ĠServ": 8705,
      "Ġprotected": 8706,
      "Fr": 8707,
      "Ġsacrific": 8708,
      "Ġwalks": 8709,
      "Ġange": 8710,
      "Ġstring": 8711,
      "west": 8712,
      "Ġvanished": 8713,
      "cas": 8714,
      "poor": 8715,
      "ĠWeb": 8716,
      "Ġcir": 8717,
      "Ġsuperst": 8718,
      "wall": 8719,
      "asked": 8720,
      "Ġchapter": 8721,
      "Ġcomposition": 8722,
      "bye": 8723,
      "ĠGreece": 8724,
      "Ġ1992": 8725,
      "late": 8726,
      "itus": 8727,
      "Take": 8728,
      "Ġ70": 8729,
      "aulay": 8730,
      "ĠHy": 8731,
      "udge": 8732,
      "Ġgiant": 8733,
      "Ġcosts": 8734,
      "AMAG": 8735,
      "Ġmour": 8736,
      "Ġ200": 8737,
      "Ġmodest": 8738,
      "Ġexamined": 8739,
      "Ġconc": 8740,
      "ĠLo": 8741,
      "prov": 8742,
      "icht": 8743,
      "Ġtranqu": 8744,
      "Ġemployment": 8745,
      ";--": 8746,
      "Whe": 8747,
      "):": 8748,
      "CL": 8749,
      "ĠJean": 8750,
      "nic": 8751,
      "Ġsheet": 8752,
      "therefore": 8753,
      "ĠCarol": 8754,
      "Ġsway": 8755,
      "Ġshud": 8756,
      "ĠAtlantic": 8757,
      "014": 8758,
      "Ġlaying": 8759,
      "\"'": 8760,
      "aration": 8761,
      "Ġcoarse": 8762,
      "Ġindifferent": 8763,
      "ustrious": 8764,
      "former": 8765,
      "Ġpine": 8766,
      "Ġcollected": 8767,
      "Ġelements": 8768,
      "Ġ180": 8769,
      "ĠEmp": 8770,
      "inked": 8771,
      "Ġwanting": 8772,
      "Ro": 8773,
      "olland": 8774,
      "Ġseriously": 8775,
      "Ġsq": 8776,
      "Ġstomach": 8777,
      "exam": 8778,
      "second": 8779,
      "wen": 8780,
      "Ġpret": 8781,
      "quer": 8782,
      "Two": 8783,
      "ĠFebruary": 8784,
      "Ġshru": 8785,
      "Ġexpedition": 8786,
      "inda": 8787,
      "Ġholds": 8788,
      "Ġinferior": 8789,
      "ortal": 8790,
      "class": 8791,
      "Ġwash": 8792,
      "ĠFanny": 8793,
      "ĠDuring": 8794,
      "Ġhesitated": 8795,
      "Ġdru": 8796,
      "city": 8797,
      "Ġdeeds": 8798,
      "angle": 8799,
      "Ġfailure": 8800,
      "Ġlawyer": 8801,
      "Ġgrin": 8802,
      "Ġappla": 8803,
      "Ġshortly": 8804,
      "Ġpolite": 8805,
      "ĠTheod": 8806,
      "Ġaux": 8807,
      "Ġguest": 8808,
      "iency": 8809,
      "Ġverse": 8810,
      "States": 8811,
      "ĠChapter": 8812,
      "Ġslip": 8813,
      "agreeable": 8814,
      "GE": 8815,
      "either": 8816,
      "ĠMess": 8817,
      "diffic": 8818,
      "Ġdisgu": 8819,
      "mediately": 8820,
      "ball": 8821,
      "Ġtransport": 8822,
      "bird": 8823,
      "ertion": 8824,
      "willing": 8825,
      "Ġmagnificent": 8826,
      "nie": 8827,
      "Ġpaint": 8828,
      "Ġperformance": 8829,
      "Ġappet": 8830,
      "blood": 8831,
      "Ġflash": 8832,
      "Pol": 8833,
      "die": 8834,
      "uming": 8835,
      "Ġlightly": 8836,
      "Ġdragged": 8837,
      "ĠMajor": 8838,
      "Ġbears": 8839,
      "ĠMost": 8840,
      "ĠConstantinople": 8841,
      "Ġavailable": 8842,
      "TO": 8843,
      "Ġnois": 8844,
      "pos": 8845,
      "sion": 8846,
      "Lat": 8847,
      "Ġvictim": 8848,
      "hot": 8849,
      "inently": 8850,
      "ede": 8851,
      "ĠXXX": 8852,
      "dri": 8853,
      "Ġincred": 8854,
      "ĠBaron": 8855,
      "ĠSqu": 8856,
      "unction": 8857,
      "ouring": 8858,
      "Ġtemp": 8859,
      "PH": 8860,
      "Ġabsent": 8861,
      "ĠNE": 8862,
      "unting": 8863,
      "AST": 8864,
      "Ġsuspected": 8865,
      "trou": 8866,
      "Ġdescribe": 8867,
      "Ġinquiry": 8868,
      "uty": 8869,
      "Ġexempt": 8870,
      "ĠOver": 8871,
      "ĠTarzan": 8872,
      "ĠBon": 8873,
      "503": 8874,
      "felt": 8875,
      "Ġft": 8876,
      "ĠSometimes": 8877,
      "ĠGold": 8878,
      "shaped": 8879,
      "Ġapplication": 8880,
      "ĠIC": 8881,
      "quiet": 8882,
      "Ġpatron": 8883,
      "Ġanticip": 8884,
      "ifference": 8885,
      "Ġbord": 8886,
      "ĠPri": 8887,
      "Ġglit": 8888,
      "allowed": 8889,
      "liver": 8890,
      "ĠEdin": 8891,
      "ACH": 8892,
      "ĠTim": 8893,
      "ĠLuc": 8894,
      "Ġpoem": 8895,
      "alties": 8896,
      "iversity": 8897,
      "Ġcapita": 8898,
      "Ġconviction": 8899,
      "direct": 8900,
      "urred": 8901,
      "sometimes": 8902,
      "rable": 8903,
      "Ġlimitation": 8904,
      "Ġproviding": 8905,
      "Ġrat": 8906,
      "OH": 8907,
      "Ġsecured": 8908,
      "espeare": 8909,
      "matic": 8910,
      "aret": 8911,
      "Ġseeking": 8912,
      "Ġconfirm": 8913,
      "gend": 8914,
      "Ġhandle": 8915,
      "ĠAGRE": 8916,
      "âģ": 8917,
      "ĠChinese": 8918,
      "INE": 8919,
      "Ġscra": 8920,
      "phy": 8921,
      "âģĦ": 8922,
      "ĠAss": 8923,
      "ĠDutch": 8924,
      "Ġdetermine": 8925,
      "Ġpersuaded": 8926,
      "lest": 8927,
      "Ġinstit": 8928,
      "Add": 8929,
      "imm": 8930,
      "flu": 8931,
      "010": 8932,
      "lers": 8933,
      "emb": 8934,
      "ĠThree": 8935,
      "Ġhatred": 8936,
      "school": 8937,
      "Ġmingled": 8938,
      "Ġcorpor": 8939,
      "Ġtouching": 8940,
      "national": 8941,
      "Ġpointing": 8942,
      "Dear": 8943,
      "alone": 8944,
      "Ter": 8945,
      "olen": 8946,
      "Ġgenuine": 8947,
      "thou": 8948,
      "Ġresist": 8949,
      "Ġdecision": 8950,
      "Ġfastened": 8951,
      "ĠJon": 8952,
      "Ġobscure": 8953,
      "itled": 8954,
      "Ġfires": 8955,
      "ands": 8956,
      "ĠBrand": 8957,
      "Ġdoub": 8958,
      "fts": 8959,
      "Ġ85": 8960,
      "icing": 8961,
      "ican": 8962,
      "Ġsmart": 8963,
      "Ġelev": 8964,
      "Ġprotest": 8965,
      "Ġmix": 8966,
      "itional": 8967,
      "Ġfinds": 8968,
      "chard": 8969,
      "daughter": 8970,
      "ÃĬ": 8971,
      "Ġabandoned": 8972,
      "Ġrela": 8973,
      "Ġrespectable": 8974,
      "Ġexhausted": 8975,
      "Ġnav": 8976,
      "Ġbeating": 8977,
      "Ġafterward": 8978,
      "ĠEmily": 8979,
      "ĠSop": 8980,
      "Ġpartners": 8981,
      "Ġpalm": 8982,
      "inated": 8983,
      "ĠJoe": 8984,
      "Ġ43": 8985,
      "Ġmotive": 8986,
      "Ġphen": 8987,
      "ĠMur": 8988,
      "Ġwandering": 8989,
      "asures": 8990,
      "fashion": 8991,
      "faced": 8992,
      "Ġhind": 8993,
      "Ġfearful": 8994,
      "Ġfolks": 8995,
      "Bacon": 8996,
      "welt": 8997,
      "Ġliterary": 8998,
      "Ġpermit": 8999,
      "nature": 9000,
      "Ġchamp": 9001,
      "Ġcared": 9002,
      "Ġcloak": 9003,
      "Ġsaddle": 9004,
      "Ġmail": 9005,
      "log": 9006,
      "Ġkeeps": 9007,
      "early": 9008,
      "incre": 9009,
      "Ġoak": 9010,
      "Ġwearing": 9011,
      "ĠRef": 9012,
      "Ġconsists": 9013,
      "ĠAnother": 9014,
      "Ġarrangement": 9015,
      "ĠDorothy": 9016,
      "oi": 9017,
      "forward": 9018,
      "Ġappropri": 9019,
      "Ġlimit": 9020,
      "Ġnom": 9021,
      "Ġ1993": 9022,
      "Ġcrack": 9023,
      "?âĢĶ": 9024,
      "Ġloo": 9025,
      "Ġbeach": 9026,
      "Ġremarks": 9027,
      "ashes": 9028,
      "except": 9029,
      "lem": 9030,
      "immer": 9031,
      "Ġcourts": 9032,
      "CII": 9033,
      "ĠVill": 9034,
      "Same": 9035,
      "564": 9036,
      "Ġportrait": 9037,
      "ĠJacob": 9038,
      "Ġcharged": 9039,
      "access": 9040,
      "Ġcharacteristic": 9041,
      "written": 9042,
      "ĠEconom": 9043,
      "Ġcopying": 9044,
      "Ġfoe": 9045,
      "imer": 9046,
      "ĠTake": 9047,
      "antages": 9048,
      "Ġquit": 9049,
      "Ġtun": 9050,
      "ĠDu": 9051,
      "Ġdisturbed": 9052,
      "Ġcraft": 9053,
      "Ġdepends": 9054,
      "IGHT": 9055,
      "BR": 9056,
      "aunt": 9057,
      "inkle": 9058,
      "ducing": 9059,
      "actory": 9060,
      "Ġ64": 9061,
      "Indeed": 9062,
      "manner": 9063,
      "xx": 9064,
      "Ġgazing": 9065,
      "ĠRussia": 9066,
      "Ġ47": 9067,
      "Ġfiles": 9068,
      "Ġphot": 9069,
      "iverse": 9070,
      "ËĨl": 9071,
      "KE": 9072,
      "Ġdeux": 9073,
      "conn": 9074,
      "Ġsongs": 9075,
      "Ġbalance": 9076,
      "ava": 9077,
      "Ġdoubtful": 9078,
      "Ġ46": 9079,
      "Ġresent": 9080,
      "Ġdenotes": 9081,
      "Ġmeasures": 9082,
      "etch": 9083,
      "run": 9084,
      "inge": 9085,
      "Ġhoney": 9086,
      "Ġbend": 9087,
      "Ġalle": 9088,
      "More": 9089,
      "Ġmixture": 9090,
      "Ġslightest": 9091,
      "ioned": 9092,
      "ĠPacific": 9093,
      "different": 9094,
      "itÃ©": 9095,
      "Ġgig": 9096,
      "Ġdesires": 9097,
      "ZoËĨl": 9098,
      "itudes": 9099,
      "Ġbasket": 9100,
      "ĠEX": 9101,
      "Ġcargo": 9102,
      "Ġbirths": 9103,
      "ĠMos": 9104,
      "perial": 9105,
      "Ġfederal": 9106,
      "number": 9107,
      "ribly": 9108,
      "''": 9109,
      "Ġgown": 9110,
      "cied": 9111,
      "phew": 9112,
      "ĠAtt": 9113,
      "Ġdevotion": 9114,
      "friends": 9115,
      "Spe": 9116,
      "oped": 9117,
      "Ġreluct": 9118,
      "Ġvote": 9119,
      "Ġsubsequ": 9120,
      "rÃ©": 9121,
      "Ġcoo": 9122,
      "Ġsharply": 9123,
      "Ġwheels": 9124,
      "Ġmanage": 9125,
      "ĠRem": 9126,
      "began": 9127,
      "Ġruns": 9128,
      "omp": 9129,
      "Ġnest": 9130,
      "onies": 9131,
      "Ġnm": 9132,
      "554": 9133,
      "Ġcontrad": 9134,
      "Ġperforming": 9135,
      "Ġgifts": 9136,
      "thus": 9137,
      "olate": 9138,
      "ugged": 9139,
      "Ġmisfortune": 9140,
      "Ġexamination": 9141,
      "laced": 9142,
      "Ġbrings": 9143,
      "Ġtrip": 9144,
      "IE": 9145,
      "Ġpatter": 9146,
      "Ġdamage": 9147,
      "Ġpitch": 9148,
      "ether": 9149,
      "Ġbeings": 9150,
      "elia": 9151,
      "inea": 9152,
      "want": 9153,
      "ĠWater": 9154,
      "grim": 9155,
      "Ġneighbourhood": 9156,
      "Ġsolitary": 9157,
      "sac": 9158,
      "Ġcontains": 9159,
      "ĠsÃ¬": 9160,
      "Ġgover": 9161,
      "ĠÃ¨": 9162,
      "cid": 9163,
      "ulus": 9164,
      "Ġleaped": 9165,
      "iculous": 9166,
      "Ġanchor": 9167,
      "Ġshepher": 9168,
      "Ġweapons": 9169,
      "Ġenthusiasm": 9170,
      "Ġdarling": 9171,
      "yright": 9172,
      "Ġscr": 9173,
      "Ġmutual": 9174,
      "ĠTaylor": 9175,
      "ĠDou": 9176,
      "Ġtriump": 9177,
      "Ġfinish": 9178,
      "Ġsupreme": 9179,
      "Ġvel": 9180,
      "Ġcritical": 9181,
      "Ġholiday": 9182,
      "rative": 9183,
      "usions": 9184,
      "ĠpiÃ¹": 9185,
      "olved": 9186,
      "Ġretire": 9187,
      "504": 9188,
      "guard": 9189,
      "Ġtorment": 9190,
      "Ġwag": 9191,
      "Ġfetch": 9192,
      "ods": 9193,
      "ĠRa": 9194,
      "Ġsins": 9195,
      "Ġoft": 9196,
      "Ġ34": 9197,
      "Ġstarting": 9198,
      "Ġtoday": 9199,
      "--âĢĿ": 9200,
      "Ġnevertheless": 9201,
      "Ġstartled": 9202,
      "Ġdoubtless": 9203,
      "Ġchimney": 9204,
      "agle": 9205,
      "507": 9206,
      "Ġneighbor": 9207,
      "isse": 9208,
      "plomatic": 9209,
      "portrait": 9210,
      "Most": 9211,
      "Gu": 9212,
      "inations": 9213,
      "Ġbegins": 9214,
      "Ġsupplied": 9215,
      "Ay": 9216,
      "Ġfatig": 9217,
      "ĠPope": 9218,
      "bacco": 9219,
      "ĠĠĠĠĠĠĠĠĠĠĠĠ": 9220,
      "ensions": 9221,
      "cian": 9222,
      "legraph": 9223,
      "ecutive": 9224,
      "Nat": 9225,
      "ril": 9226,
      "Leg": 9227,
      "ĠIS": 9228,
      "ĠSur": 9229,
      "Ġinev": 9230,
      "Ġfinan": 9231,
      "ĠBas": 9232,
      "abb": 9233,
      "Ġengagement": 9234,
      "Ġdang": 9235,
      "Ġinclude": 9236,
      "arson": 9237,
      "Ġparl": 9238,
      "mbre": 9239,
      "Ġconsp": 9240,
      "ĠGal": 9241,
      "Ġupright": 9242,
      "1970": 9243,
      "Ġmasters": 9244,
      "anguage": 9245,
      "justice": 9246,
      "UC": 9247,
      "especially": 9248,
      "Only": 9249,
      "Ġdining": 9250,
      "ĠCat": 9251,
      "Ġmischief": 9252,
      "Ġtumult": 9253,
      "Ġlou": 9254,
      "stock": 9255,
      "SAT": 9256,
      "Ġmarine": 9257,
      "Ġyell": 9258,
      "spring": 9259,
      "within": 9260,
      "Ġnecessarily": 9261,
      "Ġdressing": 9262,
      "houses": 9263,
      "Ġsuitable": 9264,
      "ĠYe": 9265,
      "opport": 9266,
      "lag": 9267,
      "ĠĠĠĠĠĠĠĠĠĠĠĠĠĠĠ": 9268,
      "Ġrevealed": 9269,
      "Ġfel": 9270,
      "Scot": 9271,
      "sure": 9272,
      "Ġheels": 9273,
      "urther": 9274,
      "ĠGil": 9275,
      ">,<": 9276,
      "bad": 9277,
      "012": 9278,
      "Ġfab": 9279,
      "role": 9280,
      "ĠSi": 9281,
      "occasion": 9282,
      "spread": 9283,
      "cannot": 9284,
      "Ġpp": 9285,
      "Ġceremony": 9286,
      "women": 9287,
      "Ġ188": 9288,
      "behind": 9289,
      "Ant": 9290,
      "unken": 9291,
      "elp": 9292,
      "main": 9293,
      "rich": 9294,
      "ships": 9295,
      "Shall": 9296,
      "rene": 9297,
      "Ġascertain": 9298,
      "ĠNO": 9299,
      "Ġmusical": 9300,
      "Ġhitherto": 9301,
      "aning": 9302,
      "mach": 9303,
      "Ġsunk": 9304,
      "Though": 9305,
      "Ġhospital": 9306,
      "Ap": 9307,
      "Ġresistance": 9308,
      "Ġobvious": 9309,
      "ĠBishop": 9310,
      "âĢĲâĢĲ": 9311,
      "tro": 9312,
      "ĠShall": 9313,
      "teenth": 9314,
      "Would": 9315,
      "Loc": 9316,
      "Ġbund": 9317,
      "Ġintend": 9318,
      "Ġexternal": 9319,
      "Ġdeeper": 9320,
      "Ġeaten": 9321,
      "Ġjuris": 9322,
      "Ġber": 9323,
      "ĠLIM": 9324,
      "Ġsuccession": 9325,
      "Ġsanct": 9326,
      "mic": 9327,
      "Ġprogram": 9328,
      "Ġcrept": 9329,
      "circumst": 9330,
      "Ġtrif": 9331,
      "Ġrailway": 9332,
      "ĠPan": 9333,
      "Ġbedroom": 9334,
      "ĠLake": 9335,
      "lia": 9336,
      "mere": 9337,
      "aneous": 9338,
      "cun": 9339,
      "Ġpian": 9340,
      "Ġvisitor": 9341,
      "Ġfavourite": 9342,
      "988": 9343,
      "esp": 9344,
      "Ġpled": 9345,
      "ĠEmma": 9346,
      "Ġhastened": 9347,
      "ĠHart": 9348,
      "Ġaccompany": 9349,
      "Ġich": 9350,
      "bot": 9351,
      "sight": 9352,
      "IO": 9353,
      "Ġhir": 9354,
      "Ġattribut": 9355,
      "Ġencourage": 9356,
      "013": 9357,
      "ira": 9358,
      "ĠMass": 9359,
      "umble": 9360,
      "Ġunlike": 9361,
      "Ġplane": 9362,
      "English": 9363,
      "Ġdiscussion": 9364,
      "________________": 9365,
      "Ġcontents": 9366,
      "pring": 9367,
      "Ġfairy": 9368,
      "Ġgesture": 9369,
      "cclesiast": 9370,
      "viour": 9371,
      "Ġjumped": 9372,
      "Ġhunger": 9373,
      "Ġwept": 9374,
      "Ġconfl": 9375,
      "Ġdecor": 9376,
      "ĠWithout": 9377,
      "Ġmovements": 9378,
      "Ġtrembled": 9379,
      "Ġreferred": 9380,
      "Sm": 9381,
      "whel": 9382,
      "Ġult": 9383,
      "ĠApp": 9384,
      "Ġtermin": 9385,
      "Ġcleared": 9386,
      "ĠSax": 9387,
      "ĠNed": 9388,
      "plain": 9389,
      "Ġsymb": 9390,
      "Ġpasses": 9391,
      "Ġthyself": 9392,
      "dam": 9393,
      "sex": 9394,
      "lav": 9395,
      "Ġdirections": 9396,
      "Ġbust": 9397,
      "Ġresidence": 9398,
      "Ġcreating": 9399,
      "Ġtones": 9400,
      "ouched": 9401,
      "ĠAM": 9402,
      "ĠArt": 9403,
      "Ġballoon": 9404,
      "Ġunp": 9405,
      "ĠRod": 9406,
      "Ġdispute": 9407,
      "Ġdamsel": 9408,
      "Ġsailed": 9409,
      "Ġfarew": 9410,
      "Ġlightning": 9411,
      "Ġsober": 9412,
      "ĠOri": 9413,
      "Ġsecretary": 9414,
      "Ġconducted": 9415,
      "Ġesteem": 9416,
      "hill": 9417,
      "Ġgau": 9418,
      "ĠFlorence": 9419,
      "Ġselfish": 9420,
      "reath": 9421,
      ".[": 9422,
      "Ġengage": 9423,
      "ĠDown": 9424,
      "need": 9425,
      "Bet": 9426,
      "Ġstuck": 9427,
      "Ġreturns": 9428,
      "Ġrivers": 9429,
      "IF": 9430,
      "awn": 9431,
      "Ġmourn": 9432,
      "Ġdiscipline": 9433,
      "Ġsouthern": 9434,
      "Ġlinen": 9435,
      "fold": 9436,
      "rob": 9437,
[...]
